{"<pad>": 0, "<s>": 1, "</s>": 2, "<unk>": 3, "<s_AGAIN>": 4, "<pad_AGAIN>": 5, "</s_AGAIN>": 6, "<unk_AGAIN>": 7, "!": 8, "\"": 9, "#": 10, "$": 11, "%": 12, "&": 13, "'": 14, "(": 15, ")": 16, "*": 17, "+": 18, ",": 19, "-": 20, ".": 21, "/": 22, "0": 23, "1": 24, "2": 25, "3": 26, "4": 27, "5": 28, "6": 29, "7": 30, "8": 31, "9": 32, ":": 33, ";": 34, "<": 35, "=": 36, ">": 37, "?": 38, "@": 39, "A": 40, "B": 41, "C": 42, "D": 43, "E": 44, "F": 45, "G": 46, "H": 47, "I": 48, "J": 49, "K": 50, "L": 51, "M": 52, "N": 53, "O": 54, "P": 55, "Q": 56, "R": 57, "S": 58, "T": 59, "U": 60, "V": 61, "W": 62, "X": 63, "Y": 64, "Z": 65, "[": 66, "\\": 67, "]": 68, "^": 69, "_": 70, "`": 71, "a": 72, "b": 73, "c": 74, "d": 75, "e": 76, "f": 77, "g": 78, "h": 79, "i": 80, "j": 81, "k": 82, "l": 83, "m": 84, "n": 85, "o": 86, "p": 87, "q": 88, "r": 89, "s": 90, "t": 91, "u": 92, "v": 93, "w": 94, "x": 95, "y": 96, "z": 97, "{": 98, "|": 99, "}": 100, "~": 101, "\u00a1": 102, "\u00a2": 103, "\u00a3": 104, "\u00a4": 105, "\u00a5": 106, "\u00a6": 107, "\u00a7": 108, "\u00a8": 109, "\u00a9": 110, "\u00aa": 111, "\u00ab": 112, "\u00ac": 113, "\u00ae": 114, "\u00af": 115, "\u00b0": 116, "\u00b1": 117, "\u00b2": 118, "\u00b3": 119, "\u00b4": 120, "\u00b5": 121, "\u00b6": 122, "\u00b7": 123, "\u00b8": 124, "\u00b9": 125, "\u00ba": 126, "\u00bb": 127, "\u00bc": 128, "\u00bd": 129, "\u00be": 130, "\u00bf": 131, "\u00c0": 132, "\u00c1": 133, "\u00c2": 134, "\u00c3": 135, "\u00c4": 136, "\u00c5": 137, "\u00c6": 138, "\u00c7": 139, "\u00c8": 140, "\u00c9": 141, "\u00ca": 142, "\u00cb": 143, "\u00cc": 144, "\u00cd": 145, "\u00ce": 146, "\u00cf": 147, "\u00d0": 148, "\u00d1": 149, "\u00d2": 150, "\u00d3": 151, "\u00d4": 152, "\u00d5": 153, "\u00d6": 154, "\u00d7": 155, "\u00d8": 156, "\u00d9": 157, "\u00da": 158, "\u00db": 159, "\u00dc": 160, "\u00dd": 161, "\u00de": 162, "\u00df": 163, "\u00e0": 164, "\u00e1": 165, "\u00e2": 166, "\u00e3": 167, "\u00e4": 168, "\u00e5": 169, "\u00e6": 170, "\u00e7": 171, "\u00e8": 172, "\u00e9": 173, "\u00ea": 174, "\u00eb": 175, "\u00ec": 176, "\u00ed": 177, "\u00ee": 178, "\u00ef": 179, "\u00f0": 180, "\u00f1": 181, "\u00f2": 182, "\u00f3": 183, "\u00f4": 184, "\u00f5": 185, "\u00f6": 186, "\u00f7": 187, "\u00f8": 188, "\u00f9": 189, "\u00fa": 190, "\u00fb": 191, "\u00fc": 192, "\u00fd": 193, "\u00fe": 194, "\u00ff": 195, "\u0100": 196, "\u0101": 197, "\u0102": 198, "\u0103": 199, "\u0104": 200, "\u0105": 201, "\u0106": 202, "\u0107": 203, "\u0108": 204, "\u0109": 205, "\u010a": 206, "\u010b": 207, "\u010c": 208, "\u010d": 209, "\u010e": 210, "\u010f": 211, "\u0110": 212, "\u0111": 213, "\u0112": 214, "\u0113": 215, "\u0114": 216, "\u0115": 217, "\u0116": 218, "\u0117": 219, "\u0118": 220, "\u0119": 221, "\u011a": 222, "\u011b": 223, "\u011c": 224, "\u011d": 225, "\u011e": 226, "\u011f": 227, "\u0120": 228, "\u0121": 229, "\u0122": 230, "\u0123": 231, "\u0124": 232, "\u0125": 233, "\u0126": 234, "\u0127": 235, "\u0128": 236, "\u0129": 237, "\u012a": 238, "\u012b": 239, "\u012c": 240, "\u012d": 241, "\u012e": 242, "\u012f": 243, "\u0130": 244, "\u0131": 245, "\u0132": 246, "\u0133": 247, "\u0134": 248, "\u0135": 249, "\u0136": 250, "\u0137": 251, "\u0138": 252, "\u0139": 253, "\u013a": 254, "\u013b": 255, "\u013c": 256, "\u013d": 257, "\u013e": 258, "\u013f": 259, "\u0140": 260, "\u0141": 261, "\u0142": 262, "\u0143": 263, "\u0120t": 264, "\u0120a": 265, "he": 266, "in": 267, "\u0120s": 268, "re": 269, "\u0120w": 270, "\u0120the": 271, "ou": 272, "on": 273, "ha": 274, "\u0120b": 275, "er": 276, "it": 277, "ing": 278, "\u0120m": 279, "\u0120c": 280, "\u0120I": 281, "is": 282, "nd": 283, "\u0120f": 284, "or": 285, "\u0120p": 286, "\u0120to": 287, "\u0120d": 288, "ll": 289, "es": 290, "\u0120o": 291, "en": 292, "\u0120l": 293, "\u0120g": 294, "an": 295, "ed": 296, "\u0120y": 297, "\u0120and": 298, "hat": 299, "st": 300, "\u0120n": 301, "\u0120in": 302, "at": 303, "\u0120you": 304, "ar": 305, "\u0120of": 306, "om": 307, "le": 308, "ve": 309, "\u0120be": 310, "ot": 311, "\u0120it": 312, "\u0120ha": 313, "\u0120e": 314, "\u0120is": 315, "\u0120th": 316, "ic": 317, "as": 318, "\u0120that": 319, "ow": 320, "ay": 321, "al": 322, "et": 323, "\u0120on": 324, "\u0120re": 325, "\u0120h": 326, "\u0120T": 327, "ly": 328, "ut": 329, "se": 330, "ld": 331, "\u0120u": 332, "id": 333, "ke": 334, "\u0120for": 335, "ver": 336, "ion": 337, "\u0120he": 338, "ac": 339, "im": 340, "'s": 341, "'t": 342, "am": 343, "all": 344, "gh": 345, "\u0120st": 346, "ent": 347, "out": 348, "\u0120A": 349, "ro": 350, "\u0120an": 351, "ad": 352, "\u0120S": 353, "ith": 354, "if": 355, "ould": 356, "oo": 357, "\u0120with": 358, "\u0120we": 359, "\u0120have": 360, "\u0120do": 361, "ill": 362, "ir": 363, "\u0120j": 364, "ally": 365, "\u0120are": 366, "ust": 367, "\u0120not": 368, "\u0120li": 369, "\u0120W": 370, "\u0120as": 371, "\u0120was": 372, "\u0120but": 373, "op": 374, "\u0120r": 375, "..": 376, "ec": 377, "\u0120wh": 378, "\u0120mo": 379, "uc": 380, "\u0120this": 381, "\u0120they": 382, "\u0120me": 383, "\u0120The": 384, "ter": 385, "ome": 386, "\u0120k": 387, "her": 388, "ght": 389, "ce": 390, "\u0120H": 391, "\u0120B": 392, "\u0120se": 393, "\u0120so": 394, "\u0120my": 395, "\u0120can": 396, "\u0120M": 397, "\u0120like": 398, "\u0120sh": 399, "\u0120or": 400, "\u0120ne": 401, "ur": 402, "\u0120at": 403, "\u0120just": 404, "\u0120ab": 405, "\u0120C": 406, "\u0120get": 407, "ant": 408, "one": 409, "ri": 410, "ge": 411, "il": 412, "pp": 413, "\u0120your": 414, "un": 415, "ers": 416, "\u0120D": 417, "han": 418, "\u0120pl": 419, "king": 420, "\u0120if": 421, "\u0120would": 422, "\u0120ma": 423, "est": 424, "\u0120go": 425, "hing": 426, "\u0120al": 427, "ame": 428, "nt": 429, "\u0120all": 430, "\u0120com": 431, "\u0120N": 432, "au": 433, "ight": 434, "\u0120ex": 435, "ess": 436, "\u0120con": 437, "\u0120whe": 438, "ab": 439, "\u0120P": 440, "\u0120su": 441, "\u0120Y": 442, "em": 443, "\u0120up": 444, "\u0120wor": 445, "\u0120don": 446, "\u0120fr": 447, "\u0120out": 448, "very": 449, "ra": 450, "eop": 451, "\u0120It": 452, "ol": 453, "\u0120pro": 454, "eople": 455, "\u0120(": 456, "ig": 457, "\u0120about": 458, "\u0120some": 459, "um": 460, "ul": 461, "us": 462, "\u0120any": 463, "ation": 464, "\u0120de": 465, "\u0120what": 466, "ink": 467, "ct": 468, "\u0120people": 469, "ate": 470, "\u0120O": 471, "\u0120\"": 472, "\u00e2\u0122": 473, "art": 474, "\u0120le": 475, "'m": 476, "\u0120E": 477, "ast": 478, "ist": 479, "\u0120v": 480, "ive": 481, "\u0120from": 482, "ack": 483, "\u0120F": 484, "\u0120G": 485, "\u0120po": 486, "\u0120one": 487, "ch": 488, "qu": 489, "\u0120tr": 490, "el": 491, "\u0120kn": 492, "\u0120L": 493, "\u0120them": 494, "ood": 495, "ain": 496, "\u01201": 497, "ven": 498, "and": 499, "\u0120more": 500, "ause": 501, "\u0120R": 502, "ind": 503, "\u0120will": 504, "\u0120there": 505, "ough": 506, "\u0120think": 507, "\u0120sp": 508, "\u0120bec": 509, "\u0120tim": 510, "ks": 511, "our": 512, "\u0120know": 513, "ort": 514, "\u00e2\u0122\u013b": 515, "\u0120who": 516, "\u0120when": 517, "\u0120fe": 518, "ard": 519, "ide": 520, "ie": 521, "ore": 522, "ect": 523, "end": 524, "\u0120play": 525, "\u0120has": 526, "ther": 527, "\u0120no": 528, "\u0120pre": 529, "\u0120lo": 530, "...": 531, "ound": 532, "ity": 533, "\u0120because": 534, "\u0120us": 535, "th": 536, "\u01202": 537, "\u0120want": 538, "are": 539, "ss": 540, "\u0120int": 541, "ong": 542, "ere": 543, "\u0120how": 544, "uch": 545, "\u0120than": 546, "'re": 547, "ear": 548, "\u0120their": 549, "\u0120did": 550, "\u0120really": 551, "\u0120time": 552, "\u0120You": 553, "ous": 554, "so": 555, "ine": 556, "act": 557, "ag": 558, "ies": 559, "\u0120his": 560, "ice": 561, "\u0120had": 562, "\u0120thing": 563, "\u0120other": 564, "\u0120every": 565, "\u0120by": 566, "ure": 567, "ff": 568, "\u0120does": 569, "\u0120ar": 570, "ap": 571, "ble": 572, "ment": 573, "\u0120te": 574, "\u0120say": 575, "\u0120If": 576, "\u0120him": 577, "\u0120ag": 578, "ite": 579, "\u0120only": 580, "ting": 581, "\u0120gu": 582, "ep": 583, "\u0120good": 584, "\u0120ta": 585, "\u0120comp": 586, "\u0120J": 587, "\u0120man": 588, "lo": 589, "ue": 590, "\u0120sa": 591, "\u0120en": 592, "way": 593, "\u0120act": 594, "\u0120see": 595, "\u0120could": 596, "\u0120off": 597, "ry": 598, "\u0120then": 599, "\u0120even": 600, "\u0120her": 601, "\u0120much": 602, "\u0120loo": 603, "ire": 604, "\u0120*": 605, "ick": 606, "\u0120i": 607, "\u0120un": 608, "own": 609, "age": 610, "ans": 611, "\u0120need": 612, "ty": 613, "\u0120qu": 614, "'ve": 615, "\u0120Th": 616, "\u0120she": 617, "\u0120too": 618, "00": 619, "ip": 620, "od": 621, "\u0120bu": 622, "\u0120bet": 623, "\u0120im": 624, "omet": 625, "\u0120year": 626, "\u0120make": 627, "\u0120way": 628, "ually": 629, "ving": 630, "\u0120over": 631, "\u0120am": 632, "\u0120ad": 633, "\u0120game": 634, "\u0120been": 635, "\u0120should": 636, "\u0120were": 637, "ich": 638, "lf": 639, "int": 640, "\u0120exp": 641, "pt": 642, "reat": 643, "\u0120now": 644, "\u0120He": 645, "uck": 646, "\u01203": 647, "\u0120U": 648, "\u0120That": 649, "\u0120being": 650, "iz": 651, "\u0120-": 652, "able": 653, "\u0120somet": 654, "\u0120going": 655, "ass": 656, "os": 657, "\u0120still": 658, "ud": 659, "\u0120got": 660, "\u0120sc": 661, "\u0120co": 662, "ace": 663, "ile": 664, "\u0120back": 665, "ck": 666, "ions": 667, "ose": 668, "\u0120pr": 669, "ious": 670, "\u0120into": 671, "\u0120work": 672, "ree": 673, "thing": 674, "\u0120right": 675, "\u0120cl": 676, "\u0120ch": 677, "\u0120This": 678, "ade": 679, "\u0120K": 680, "\u0120something": 681, "\u0120also": 682, "\u0120We": 683, "\u0120dis": 684, "\u0120most": 685, "ount": 686, "ak": 687, "\u0120But": 688, "\u0120They": 689, "be": 690, "\u0120And": 691, "ase": 692, "iv": 693, "\u0120down": 694, "\u0120feel": 695, "ond": 696, "irst": 697, "fter": 698, "\u0120lot": 699, "dit": 700, "'ll": 701, "'d": 702, "\u0120try": 703, "\u0120day": 704, "\u0120ac": 705, "\u0120cont": 706, "\u0120use": 707, "ber": 708, "ason": 709, "nder": 710, "iff": 711, "\u0120very": 712, "\u0120So": 713, "\u0120What": 714, "\u0120which": 715, "\u0120never": 716, "\u0120part": 717, "\u0120happ": 718, "\u0120gr": 719, "\u0120why": 720, "\u0120better": 721, "\u0120guy": 722, "\u0120cha": 723, "ens": 724, "ial": 725, "per": 726, "\u0120same": 727, "\u0120bl": 728, "\u0120doesn": 729, "\u0120first": 730, "\u0120well": 731, "\u0120diff": 732, "ull": 733, "\u0120new": 734, "\u0120where": 735, "\u0120ro": 736, "tty": 737, "\u0120chan": 738, "\u0120tw": 739, "\u0120start": 740, "kes": 741, "fore": 742, "\u0120shit": 743, "other": 744, "\u0120after": 745, "ably": 746, "\u0120here": 747, "wn": 748, "\u0120Wh": 749, "erson": 750, "\u0120ke": 751, "ated": 752, "ence": 753, "\u0120res": 754, "\u0120actually": 755, "\u0120under": 756, "ought": 757, "\u0120sure": 758, "\u0120point": 759, "\u0120though": 760, "\u0120didn": 761, "ish": 762, "ild": 763, "\u0120again": 764, "orm": 765, "\u0120per": 766, "\u0120thr": 767, "\u0120lit": 768, "ign": 769, "\u0120someone": 770, "tle": 771, "\u0120take": 772, "mo": 773, "\u0120pretty": 774, "ah": 775, "\u0120those": 776, "vel": 777, "\u0120may": 778, "ool": 779, "self": 780, "\u01205": 781, "\u0120har": 782, "\u0120app": 783, "\u0120jo": 784, "ways": 785, "ach": 786, "\u0120things": 787, "\u01204": 788, "read": 789, "\u0120St": 790, "\u0120real": 791, "\u0120before": 792, "riend": 793, ").": 794, "ife": 795, "red": 796, "ning": 797, "ory": 798, "\u0120V": 799, "\u0120person": 800, "ance": 801, "\u0120Al": 802, "sh": 803, "\u0120che": 804, "bably": 805, "\u0120dec": 806, "\u0120said": 807, "\u0120fa": 808, "\u0120years": 809, "\u0120bad": 810, "\u0120def": 811, "\u0120imp": 812, "\u0120differe": 813, "\u0120ser": 814, "\u0120look": 815, "\u0120long": 816, "ult": 817, "\u0120seem": 818, "\u0120wr": 819, "\u0120In": 820, "ia": 821, "ince": 822, "igh": 823, "\u0120rec": 824, "ord": 825, "ves": 826, "\u0120wat": 827, "ps": 828, "ically": 829, "\u0120hel": 830, "ub": 831, "\u0120inc": 832, "\u0120:": 833, "ical": 834, "\u0120end": 835, "ress": 836, "\u0120around": 837, "ary": 838, "\u0120isn": 839, "\u0120There": 840, "\u0120these": 841, "ple": 842, "ft": 843, "ever": 844, "\u0120mean": 845, "\u0120rep": 846, "\u0120many": 847, "\u0120great": 848, "\u0120always": 849, "\u0120find": 850, "og": 851, "\u0120our": 852, "\u0120br": 853, "\u0120cons": 854, "\u0120How": 855, "\u0120its": 856, "xt": 857, "\u0120bot": 858, "we": 859, "\u0120att": 860, "ons": 861, "\u0120tal": 862, "\u0120My": 863, "\u0120team": 864, "less": 865, "iss": 866, "\u0120post": 867, "\u0120probably": 868, "\u0120mat": 869, "\u0120hard": 870, "oc": 871, "urn": 872, "hed": 873, "oy": 874, "ily": 875, "\u0120put": 876, "\u0120own": 877, "\u0120supp": 878, "\u0120anything": 879, "\u0120No": 880, "\u0120call": 881, "\u0120while": 882, "ved": 883, "\u0120two": 884, "\u0120cr": 885, "\u0120show": 886, "up": 887, "\u0120few": 888, "\u0120getting": 889, "ames": 890, "\u0120fl": 891, "ating": 892, "\u0120big": 893, "\u0120acc": 894, "\u0120bel": 895, "\u0120reason": 896, "ual": 897, "ely": 898, "\u0120best": 899, "\u0120run": 900, "\u0120made": 901, "\u0120Not": 902, "\u0120friend": 903, "gg": 904, "ave": 905, "\u0120kind": 906, "vers": 907, "\u0120sub": 908, "\u0120mon": 909, "\u0120op": 910, "\u0120car": 911, "ful": 912, "\u0120love": 913, "\u0120bit": 914, "\u0120sl": 915, "\u0120bas": 916, "les": 917, "oney": 918, "\u0120keep": 919, "\u0120ass": 920, "ell": 921, "\u0120des": 922, "ise": 923, "ict": 924, "\u0120sm": 925, "ark": 926, "\u0120el": 927, "ible": 928, "\u0120doing": 929, "\u0120min": 930, "blem": 931, "\u0120since": 932, "\u0120last": 933, "\u0120help": 934, "\u0120rel": 935, "mer": 936, "\u0120read": 937, "\u0120through": 938, "\u0120let": 939, "\u0120char": 940, "\u0120fun": 941, "\u0120inst": 942, "\u0120wee": 943, "ower": 944, "\u0120give": 945, "\u0120Do": 946, "\u0120might": 947, "\u0120thought": 948, "eah": 949, "\u0120problem": 950, "ope": 951, "\u0120$": 952, "\u0120money": 953, "\u0120enough": 954, "ny": 955, "let": 956, "\u0120ever": 957, "\u0120tell": 958, "get": 959, "\u0120little": 960, "ors": 961, "\u0120happen": 962, "\u0120different": 963, "ne": 964, "\u0120ph": 965, "\u0120str": 966, "\u0120gen": 967, "ian": 968, "\u0120life": 969, "\u0120sim": 970, "\u0120comm": 971, "hen": 972, "\u0120pay": 973, "\u0120used": 974, "ense": 975, "\u0120Is": 976, "\u0120fuck": 977, "here": 978, "ail": 979, "pe": 980, "uff": 981, "\u0120hand": 982, "\u0120old": 983, "\u0120rem": 984, "ook": 985, "\u0120ide": 986, "\u0120far": 987, "\u0120As": 988, "\u0120sec": 989, "\u0120eas": 990, "\u0120em": 991, "ump": 992, "\u0120without": 993, "\u0120tri": 994, "ger": 995, "ib": 996, "az": 997, "\u0120makes": 998, "\u0120belie": 999, "\u0120kill": 1000, "ody": 1001, "\u0120sha": 1002, "li": 1003, "aw": 1004, "ards": 1005, "\u0120high": 1006, "stand": 1007, "\u0120add": 1008, "ert": 1009, "\u0120bo": 1010, "\u0120ent": 1011, "\u0120games": 1012, "\u0120care": 1013, "\u0120won": 1014, "\u0120dr": 1015, "\u0120buy": 1016, "\u0120everyone": 1017, "\u0120set": 1018, "ucking": 1019, "\u0120trying": 1020, "\u0120Just": 1021, "ither": 1022, "\u01206": 1023, "ations": 1024, "\u0120sk": 1025, "ait": 1026, "\u0120quest": 1027, "\u0120kid": 1028, "ics": 1029, "\u0120come": 1030, "\u0120having": 1031, "\u0120hat": 1032, "arly": 1033, "ready": 1034, "\u0120sy": 1035, "erest": 1036, "lic": 1037, "ath": 1038, "\u0120ev": 1039, "cept": 1040, "\u0120fact": 1041, "\u0120least": 1042, "ents": 1043, "\u0120Also": 1044, "\u0120ob": 1045, "\u0120both": 1046, "ially": 1047, "\u0120already": 1048, "\u0120mod": 1049, "na": 1050, "\u0120else": 1051, "\u0120cur": 1052, "\u0120another": 1053, "ather": 1054, "ked": 1055, "\u0120tra": 1056, "\u0120less": 1057, "\u0120reg": 1058, "\u0120understand": 1059, "\u0120inter": 1060, "\u0120cle": 1061, "\u0120job": 1062, "\u0120inf": 1063, "ead": 1064, "\u012010": 1065, "\u0120ter": 1066, "\u0120count": 1067, "hes": 1068, "\u0120'": 1069, "\u012020": 1070, "ost": 1071, "ix": 1072, "ates": 1073, "\u0120saying": 1074, "\u0120ins": 1075, "gr": 1076, "\u0120iss": 1077, "old": 1078, "ize": 1079, "\u0120aw": 1080, "duc": 1081, "\u0120unt": 1082, "\u0120Why": 1083, "\u0120dam": 1084, "\u0120world": 1085, "\u0120Ch": 1086, "\u0120fin": 1087, "\u0120sit": 1088, "ng": 1089, "ten": 1090, "\u0120month": 1091, "\u0120pol": 1092, "\u0120stop": 1093, "\u0120away": 1094, "als": 1095, "\u0120fucking": 1096, "day": 1097, "!!": 1098, "\u0120wrong": 1099, "nce": 1100, "\u0120nothing": 1101, "\u0120win": 1102, "\u0120wom": 1103, "\u0120anyone": 1104, "ash": 1105, "iously": 1106, "\u0120interest": 1107, "ces": 1108, "\u0120inv": 1109, "\u0120ext": 1110, "\u0120stuff": 1111, "ters": 1112, "\u0120sur": 1113, "pl": 1114, "\u0120able": 1115, "\u0120next": 1116, "\u0120She": 1117, "\u0120clo": 1118, "\u0120until": 1119, "ew": 1120, "\u0120top": 1121, "ention": 1122, "av": 1123, "\u0120done": 1124, "ition": 1125, "oot": 1126, "\u0120seems": 1127, "\u0120sound": 1128, "ier": 1129, "\u0120level": 1130, "its": 1131, "ism": 1132, "),": 1133, "\u0120cou": 1134, "ts": 1135, "\u0120spec": 1136, "\u0120wouldn": 1137, "ee": 1138, "\u0120idea": 1139, "\u0120Can": 1140, "\u0120dri": 1141, "ience": 1142, "\u0120resp": 1143, "\u0120Than": 1144, "\u0120When": 1145, "\u0120turn": 1146, "ang": 1147, "\u0120against": 1148, "\u0120hour": 1149, "tc": 1150, "\u0120making": 1151, "\u0120using": 1152, "\u0120times": 1153, "\u0120poss": 1154, "\u0120ref": 1155, "\u0120sw": 1156, "\u0120place": 1157, "ude": 1158, "chool": 1159, "ering": 1160, "\u0120maybe": 1161, "ont": 1162, "\u0120believe": 1163, "\u0120either": 1164, "\u0120guys": 1165, "\u0120bre": 1166, "\u0120Yeah": 1167, "....": 1168, "\u0120everything": 1169, "\u0120spe": 1170, "ative": 1171, "arent": 1172, "ank": 1173, "\u0120gener": 1174, "**": 1175, "\u0120free": 1176, "\u0120full": 1177, "\u0120conf": 1178, "\u0120cor": 1179, "\u0120complet": 1180, "ility": 1181, "\u0120For": 1182, "onest": 1183, "ake": 1184, "vie": 1185, "ote": 1186, "\u0120/": 1187, "ime": 1188, "\u0120Tr": 1189, "\u0120looking": 1190, "\u0120guess": 1191, "man": 1192, "most": 1193, "\u0120defin": 1194, "\u0120gir": 1195, "\u0120eff": 1196, "lease": 1197, "\u0120comment": 1198, "ys": 1199, "\u0120whole": 1200, "\u0120exper": 1201, "\u0120once": 1202, "\u0120seen": 1203, "\u0120playing": 1204, "\u0120second": 1205, "\u0120head": 1206, "\u01209": 1207, "\u0120such": 1208, "ars": 1209, "oll": 1210, "\u0120wait": 1211, "arn": 1212, "\u0120etc": 1213, "\u0120hope": 1214, "sp": 1215, "\u0120Or": 1216, "ug": 1217, "\u0120dep": 1218, "\u0120ind": 1219, "\u0120Edit": 1220, "ird": 1221, "ember": 1222, "\u0120gi": 1223, "ced": 1224, "\u0120went": 1225, "\u01208": 1226, "\u0120school": 1227, "stem": 1228, "\u0120charac": 1229, "ats": 1230, "\u0120aren": 1231, "ouse": 1232, "ific": 1233, "\u0120gets": 1234, "\u0120wasn": 1235, "\u01207": 1236, "\u0120ty": 1237, "\u0120mind": 1238, "\u0120miss": 1239, "\u0120disc": 1240, "ied": 1241, "\u0120red": 1242, "ins": 1243, "lain": 1244, "ered": 1245, "\u0120list": 1246, "itely": 1247, "\u0120live": 1248, ".\"": 1249, "\u0120change": 1250, "\u0120power": 1251, "ings": 1252, "ately": 1253, "\u0120support": 1254, "--": 1255, "\u0120players": 1256, "ular": 1257, "\u0120leg": 1258, "\u0120home": 1259, "\u0120each": 1260, "\u0120left": 1261, "\u0120Well": 1262, "\u0120rest": 1263, "\u0120cre": 1264, "ween": 1265, "led": 1266, "\u0120fam": 1267, "\u0120week": 1268, "ues": 1269, "umb": 1270, "lt": 1271, "ets": 1272, "ike": 1273, "der": 1274, "\u0120system": 1275, "ern": 1276, "ident": 1277, "lect": 1278, "\u0120May": 1279, "\u0120stand": 1280, "\u0120build": 1281, "uss": 1282, "\u0120cra": 1283, "olut": 1284, "alth": 1285, "\u0120met": 1286, "ject": 1287, "\u0120perf": 1288, "ph": 1289, "\u0120med": 1290, "dd": 1291, "ech": 1292, "io": 1293, "eg": 1294, "meric": 1295, "\u0120pass": 1296, "\u0120question": 1297, "\u0120US": 1298, "\u0120hit": 1299, "\u0120between": 1300, "\u0120cour": 1301, "ertain": 1302, "ren": 1303, "ater": 1304, "\u0120nice": 1305, "\u0120plan": 1306, "rent": 1307, "\u0120open": 1308, "\u0120deal": 1309, "\u0120yet": 1310, "inking": 1311, "bo": 1312, "\".": 1313, "\u0120adv": 1314, "cess": 1315, "\u0120small": 1316, "ci": 1317, "ef": 1318, "\u0120sex": 1319, "\u0120child": 1320, "ching": 1321, "\u0120class": 1322, "\u0120days": 1323, "\u0120looks": 1324, "uring": 1325, "\u0120instead": 1326, "\u0120almost": 1327, "ows": 1328, "\u0120friends": 1329, "\u0120super": 1330, "\u0120Americ": 1331, "\u0120war": 1332, "\u0120exact": 1333, "\u0120move": 1334, "\u0120hate": 1335, "ner": 1336, "\u0120worth": 1337, "\u0120side": 1338, "\u0120mom": 1339, "\u0120vide": 1340, "\u0120dra": 1341, "\u0120girl": 1342, "\u0120fight": 1343, "\u0120ed": 1344, "\u0120hu": 1345, "\u0120ret": 1346, "\u0120story": 1347, "\u0120es": 1348, "\u0120coll": 1349, "body": 1350, "\u0120contro": 1351, "\u0120case": 1352, "ited": 1353, "orry": 1354, "ream": 1355, "\u0120name": 1356, "\u0120Don": 1357, "\u0120ago": 1358, "\u0120sign": 1359, "\u0120dro": 1360, "\u0120means": 1361, "\u0120talking": 1362, "\u0120sing": 1363, "\u0120100": 1364, "\u0120trans": 1365, "aid": 1366, "orn": 1367, "\u0120found": 1368, "\u0120entire": 1369, "pr": 1370, "\u0120definitely": 1371, "bs": 1372, "amp": 1373, "ots": 1374, "ives": 1375, "\u0120started": 1376, "\u0120wanted": 1377, "any": 1378, "\u0120All": 1379, "ities": 1380, "\u0120abs": 1381, "ists": 1382, "ms": 1383, "\u0120agree": 1384, "\u0120pick": 1385, "\u0120word": 1386, "\u0120season": 1387, "\u0120hum": 1388, "cy": 1389, "\u0120opt": 1390, "ublic": 1391, "\u0120\u00e2\u0122": 1392, "\u0120:)": 1393, "\u0120remember": 1394, "\u0120Oh": 1395, "imes": 1396, "\u0120Maybe": 1397, "\u0120expect": 1398, "\u0120Un": 1399, "where": 1400, "ling": 1401, "\u0120pop": 1402, "ality": 1403, "ex": 1404, "\u0120myself": 1405, "ecially": 1406, "\u0120exc": 1407, "\u0120player": 1408, "ness": 1409, "\u0120lol": 1410, "\u0120opp": 1411, "omm": 1412, "\u0120At": 1413, "\u0120bus": 1414, "ken": 1415, "erally": 1416, "\u0120z": 1417, "ines": 1418, "med": 1419, "\u0120**": 1420, "ale": 1421, "\u0120Any": 1422, "line": 1423, "\u0120gl": 1424, "ock": 1425, "\u0120ask": 1426, "\u0120cut": 1427, "\u0120art": 1428, "\u0120hours": 1429, "\u0120night": 1430, "\u0120val": 1431, "\u0120sense": 1432, "\u0120honest": 1433, "\u0120Sh": 1434, "\u0120fine": 1435, "\u0120av": 1436, "\u0120Then": 1437, "\u0120minut": 1438, "\u0120chang": 1439, "\u0120dou": 1440, "\u0120wond": 1441, "owing": 1442, "unch": 1443, "\u0120kids": 1444, "\u0120Yes": 1445, "ane": 1446, "\u0120rather": 1447, "olog": 1448, "\u0120cool": 1449, "joy": 1450, "\u0120mem": 1451, "\u0120certain": 1452, "\u0120cost": 1453, "ract": 1454, "\u0120Re": 1455, "\u0120produc": 1456, "\u0120mar": 1457, "ized": 1458, "\u0120cap": 1459, "ER": 1460, "app": 1461, "not": 1462, "\u0120women": 1463, "\u0120>": 1464, "\u0120current": 1465, "\u0120bra": 1466, "\u0120requ": 1467, "ward": 1468, "\u0120experience": 1469, "\u0120issue": 1470, "ying": 1471, "ired": 1472, "sw": 1473, "\u0120months": 1474, "\u0120half": 1475, "\u0120matter": 1476, "ilar": 1477, "\u0120yes": 1478, "onna": 1479, "osed": 1480, "\u0120completely": 1481, "\u0120Thanks": 1482, "\u0120mid": 1483, "\u0120watch": 1484, "\u0120comes": 1485, "\u0120needs": 1486, "ross": 1487, "\u0120gun": 1488, "air": 1489, "\u0120haven": 1490, "\u0120told": 1491, "\u0120quite": 1492, "\u0120true": 1493, "\u0120came": 1494, "\u0120working": 1495, "\u0120Q": 1496, "\u0120To": 1497, "\u0120yourself": 1498, "ures": 1499, "ently": 1500, "\u0120likely": 1501, "aking": 1502, "\u0120arg": 1503, "ider": 1504, "\u0120talk": 1505, "\u0120law": 1506, "ared": 1507, "\u0120opin": 1508, "\u0120TH": 1509, "\u0120On": 1510, "ional": 1511, "\u0120single": 1512, "ove": 1513, "\u0120aut": 1514, "\u0120hear": 1515, "ield": 1516, "\u0120fast": 1517, "\u0120X": 1518, "\u0120Now": 1519, "\u0120pos": 1520, "\u0120usually": 1521, "\u0120played": 1522, "\u0120possible": 1523, "\u0120tot": 1524, "mm": 1525, "ange": 1526, "\u0120grou": 1527, "\u0120bro": 1528, "cial": 1529, "\u0120wal": 1530, "ship": 1531, "\u0120enjoy": 1532, "\u0120sol": 1533, "\u0120heard": 1534, "irect": 1535, "\u0120line": 1536, "\u0120fav": 1537, "rem": 1538, "\u0120Be": 1539, "\u0120ones": 1540, "\u0120suc": 1541, "\u0120lar": 1542, "\u0120took": 1543, "\u0120low": 1544, "ted": 1545, "ob": 1546, "ush": 1547, "\u0120Sp": 1548, "ised": 1549, "ecause": 1550, "iness": 1551, "\u0120Some": 1552, "the": 1553, "\u0120family": 1554, "\u0120assum": 1555, "\u0120gonna": 1556, "\u0120amount": 1557, "atch": 1558, "\u0120norm": 1559, "\u0120fre": 1560, "\u0120called": 1561, "\u0120course": 1562, "\u0120black": 1563, "\u0120effect": 1564, "ched": 1565, "fort": 1566, "\u0120fair": 1567, "\u0120goes": 1568, "\u0120past": 1569, "upid": 1570, "\u0120house": 1571, "\u0120thinking": 1572, "\u0120Bl": 1573, "ices": 1574, "\u0120sell": 1575, "\u0120pur": 1576, "\u0120stay": 1577, "\u0120tried": 1578, "\u0120learn": 1579, "\u0120couple": 1580, "\u0120situ": 1581, "rect": 1582, "\u0120close": 1583, "\u0120ve": 1584, "\u0120food": 1585, "\u0120Are": 1586, "\u0120works": 1587, "\u0120easy": 1588, "\u0120light": 1589, "jor": 1590, "\u0120during": 1591, "\u0120damage": 1592, "reen": 1593, "\u0120check": 1594, "\u00f0\u0141": 1595, "IT": 1596, "\u0120others": 1597, "??": 1598, "\u0120fan": 1599, "\u0120commun": 1600, "\u0120dont": 1601, "\u0120country": 1602, "\u0120says": 1603, "\u0120Br": 1604, "\u0120Every": 1605, "\u0120hold": 1606, "und": 1607, "\u0120parent": 1608, "\u0120ok": 1609, "\u0120happened": 1610, "\u0120mark": 1611, "\u0120import": 1612, "vern": 1613, "\u0120pres": 1614, "\u0120literally": 1615, "\u0120stud": 1616, "\u0120answ": 1617, "sel": 1618, "\u0120taking": 1619, "\u0120video": 1620, "\u0120water": 1621, "\u0120face": 1622, "\u0120exactly": 1623, "co": 1624, "\u0120foll": 1625, "side": 1626, "tern": 1627, "\u0120men": 1628, "\u0120People": 1629, "\u0120mention": 1630, "\u0120absolut": 1631, "\u0120One": 1632, "ample": 1633, "IN": 1634, "ient": 1635, "\u0120dem": 1636, "\u0120spend": 1637, "ipp": 1638, "\u0120Z": 1639, "\u0120Ar": 1640, "land": 1641, "\u0120health": 1642, "\u0120Pl": 1643, "ster": 1644, "\u0120often": 1645, "mp": 1646, "\u0120gra": 1647, "ode": 1648, "\u0120must": 1649, "\u0120main": 1650, "\u0120stupid": 1651, "wh": 1652, "50": 1653, "\u0120emp": 1654, "\u00e2\u0122\u013f": 1655, "sing": 1656, "\u0120rid": 1657, "ety": 1658, "\u0120loc": 1659, "\u0120pri": 1660, "\u0120saw": 1661, "ments": 1662, "\u0120character": 1663, "ensive": 1664, "\u0120major": 1665, "pecially": 1666, "\u0120prof": 1667, "oice": 1668, "\u0120sort": 1669, "\u0120aff": 1670, "itch": 1671, "umber": 1672, "ork": 1673, "\u0120huge": 1674, "ret": 1675, "\u0120lead": 1676, "\u0120allow": 1677, "\u0120account": 1678, "res": 1679, "\u0120coming": 1680, "\u0120direct": 1681, "10": 1682, "\u0120Because": 1683, "\u0120attack": 1684, "\u0120mus": 1685, "\u0120\u00e2\u0122\u013e": 1686, "\u0120Fr": 1687, "\u0120basically": 1688, "\u0120test": 1689, "\u0120Trump": 1690, "\u0120strong": 1691, "inal": 1692, "\u0120An": 1693, "000": 1694, "\u0120pull": 1695, "\u0120&": 1696, "rib": 1697, "\u0120later": 1698, "\u0120white": 1699, "\u0120Did": 1700, "\u0120amaz": 1701, "\u0120det": 1702, "\u0120bat": 1703, "\u0120obv": 1704, "\u0120conc": 1705, "esome": 1706, "icul": 1707, "\u0120imag": 1708, "\u0120mess": 1709, "\u0120hell": 1710, "rible": 1711, "ones": 1712, "\u0120chance": 1713, "\u0120leave": 1714, "\u0120happy": 1715, "ma": 1716, "\u0120whatever": 1717, "\u0120pot": 1718, "use": 1719, "\u0120Like": 1720, "\u0120sounds": 1721, "ully": 1722, "gy": 1723, "\u0120ban": 1724, "\u0120card": 1725, "wards": 1726, "\u0120movie": 1727, "\u0120quick": 1728, "\u0120stra": 1729, "\u0120tech": 1730, "ides": 1731, "\u0120govern": 1732, "\u0120cop": 1733, "\u0120non": 1734, "\u0120par": 1735, "\u0120fil": 1736, "\u0120control": 1737, "rist": 1738, "\u0120boo": 1739, "\u0120toget": 1740, "\u0120together": 1741, "selves": 1742, "\u0120opinion": 1743, "\u012030": 1744, "\u0120break": 1745, "\u0120tax": 1746, "\u0120form": 1747, "fer": 1748, "itive": 1749, "\u0120important": 1750, "\u0120luck": 1751, "\u0120today": 1752, "\u0120incl": 1753, "\u0120ey": 1754, "\u0120vers": 1755, "\u0120Even": 1756, "ems": 1757, "\u0120pain": 1758, "\u0120minutes": 1759, "\u0120ste": 1760, "ants": 1761, "cc": 1762, "\u0120prot": 1763, "zy": 1764, "ole": 1765, "\u0120Pro": 1766, "more": 1767, "\u0120couldn": 1768, "ined": 1769, "\u0120state": 1770, "\u0120hig": 1771, "\u0120dist": 1772, "\u0120sn": 1773, "velop": 1774, "rew": 1775, "\u0120ann": 1776, "\u0120especially": 1777, "\u0120Le": 1778, "\u0120example": 1779, "\u0120fix": 1780, "\u0120intern": 1781, "\u0120phone": 1782, "\u0120fig": 1783, "\u0120dog": 1784, "\u0120explain": 1785, "\u0120Ex": 1786, "\u0120similar": 1787, "lock": 1788, "\u0120creat": 1789, "\u0120wants": 1790, "\u0120equ": 1791, "\u0120short": 1792, "\u0120skill": 1793, "\u0120perfect": 1794, "\u0120based": 1795, "\u0120OP": 1796, "\u0120running": 1797, "\u0120bull": 1798, "\u0120polit": 1799, "els": 1800, "\u0120issues": 1801, "\u0120number": 1802, "fully": 1803, "ians": 1804, "OT": 1805, "ision": 1806, "oid": 1807, "uct": 1808, "\u0120room": 1809, "ches": 1810, "elt": 1811, "\u0120situation": 1812, "\u0120const": 1813, "\u0120weird": 1814, "\u0120ben": 1815, "br": 1816, "har": 1817, "\u0120sal": 1818, "ased": 1819, "\u0120rac": 1820, "iting": 1821, "\u0120mil": 1822, "\u0120fire": 1823, "\u0120col": 1824, "\u0120mor": 1825, "\u0120lost": 1826, "\u0120bring": 1827, "\u0120body": 1828, "\u0120mult": 1829, "\u0120ap": 1830, "\u0120order": 1831, "\u0120ill": 1832, "\u0120favor": 1833, "\u0120worse": 1834, "ibly": 1835, "\u0120soon": 1836, "\u0120stat": 1837, "ien": 1838, "iew": 1839, "\u0120cau": 1840, "arch": 1841, "ggest": 1842, "ped": 1843, "con": 1844, "\u0120cheap": 1845, "\u0120+": 1846, "\u0120price": 1847, "\u0120hor": 1848, "\u0120di": 1849, "\u0120eng": 1850, "\u0120develop": 1851, "\u0120Your": 1852, "ler": 1853, "20": 1854, "\u0120store": 1855, "\u0120Does": 1856, "\u0120Red": 1857, "\u0120Good": 1858, "\u0120become": 1859, "gle": 1860, "\u0120eat": 1861, "ages": 1862, "ried": 1863, "com": 1864, "\u0120group": 1865, "row": 1866, "\u0120pat": 1867, "\u0120bar": 1868, "\u0120three": 1869, "\u0120shot": 1870, "\u0120parents": 1871, "bt": 1872, "\u0120suggest": 1873, "\u0120amazing": 1874, "\u0120event": 1875, "\u0120view": 1876, "\u0120201": 1877, "\u0120cause": 1878, "ining": 1879, "\u0120saf": 1880, "ply": 1881, "aim": 1882, "ection": 1883, "ball": 1884, "^^": 1885, "\u0120wish": 1886, "\u0120business": 1887, "\u0120exist": 1888, "gin": 1889, "\u0120difference": 1890, "\u0120type": 1891, "ax": 1892, "\u0120uni": 1893, "\u0120government": 1894, "\u0120yeah": 1895, "\u0120pict": 1896, "AT": 1897, "\u0120prov": 1898, "\u0120shoot": 1899, "\u0120absolutely": 1900, "\u0120elect": 1901, "\u0120dev": 1902, "augh": 1903, "ru": 1904, "\u0120weeks": 1905, "\u0120dead": 1906, "\u0120beh": 1907, "\u0120takes": 1908, "like": 1909, "cle": 1910, "\u0120surpr": 1911, "ories": 1912, "\u0120lose": 1913, "ational": 1914, "ague": 1915, "loy": 1916, "\u0120nec": 1917, "\u0120lim": 1918, "\u0120correct": 1919, "\u0120remo": 1920, "\u0120God": 1921, "\u0120due": 1922, "\u0120fall": 1923, "\u0120unless": 1924, "\u0120company": 1925, "\u0120interesting": 1926, "\u0120self": 1927, "ided": 1928, "ric": 1929, "used": 1930, "\u0120public": 1931, "\u0120hur": 1932, "\u0120happens": 1933, "\u0120proper": 1934, "\u0120weap": 1935, "\u0120god": 1936, "ton": 1937, "\u0120wonder": 1938, "ries": 1939, "no": 1940, "\u0120prev": 1941, "\u0120awesome": 1942, "\u0120repl": 1943, "\u0120ball": 1944, "to": 1945, "\u0120hist": 1946, "\u0120orig": 1947, "\u0120contin": 1948, "ature": 1949, "\u0120actual": 1950, "right": 1951, "\u0120id": 1952, "\u0120arm": 1953, "\u0120behind": 1954, "\u0120Se": 1955, "\u0120ep": 1956, "\u0120front": 1957, "\u0120human": 1958, "\u0120smo": 1959, "OU": 1960, "iec": 1961, "\u0120themselves": 1962, "\u0120vi": 1963, "dle": 1964, "\u0120sometimes": 1965, "\u0120large": 1966, "\u0120early": 1967, "\u0120normal": 1968, "oth": 1969, "\u0120air": 1970, "\u0120simply": 1971, "\u0120damn": 1972, "\u0120hy": 1973, "\u0120Most": 1974, "\u0120thread": 1975, "gan": 1976, "antly": 1977, "view": 1978, "\u0120hot": 1979, "ital": 1980, "te": 1981, "\u0120Go": 1982, "LL": 1983, "\u012050": 1984, "ming": 1985, "\u0120mill": 1986, "play": 1987, "\u0120woman": 1988, "\u0120ru": 1989, "\u0120compet": 1990, "\u0120reddit": 1991, "ument": 1992, "\u012015": 1993, "\u0120figure": 1994, "\u0120vot": 1995, "ault": 1996, "verage": 1997, "\u0120answer": 1998, "\u0120fail": 1999, "\u0120shouldn": 2000, "\u0120market": 2001, "\u0120clear": 2002, "\u0120Its": 2003, "\u0120seeing": 2004, "\u0120given": 2005, "\u0120honestly": 2006, "\u0120relation": 2007, "\u0120fore": 2008, "aces": 2009, "\u0120please": 2010, "ring": 2011, "\u0120book": 2012, "ron": 2013, "by": 2014, "\u0120general": 2015, "\u0120sorry": 2016, "\u0120.": 2017, "unk": 2018, "\u0120fut": 2019, "\u0120stre": 2020, "\u0120scen": 2021, "acy": 2022, "\u0120treat": 2023, "\u0120Im": 2024, "\u0120supposed": 2025, "\u0120extrem": 2026, "ement": 2027, "\u0120sad": 2028, "\u0120pe": 2029, "\u0120area": 2030, "\u0120die": 2031, "ator": 2032, "\u0120mag": 2033, "me": 2034, "\u0120rele": 2035, "\u0120Ha": 2036, "ify": 2037, "\u0120outside": 2038, "vot": 2039, "leep": 2040, "\u0120asked": 2041, "\u0120ign": 2042, "ik": 2043, "\u0120death": 2044, "ished": 2045, "\u0120Am": 2046, "\u0120=": 2047, "\u0120x": 2048, "\u0120trade": 2049, "cha": 2050, "\u0120With": 2051, "ommend": 2052, "\u0120poor": 2053, "\u0120design": 2054, "gram": 2055, "\u0120party": 2056, "\u0120mass": 2057, "andom": 2058, "\u0120anymore": 2059, "gress": 2060, "\u0120felt": 2061, "\u0120crazy": 2062, "erv": 2063, "\u0120worked": 2064, "\u0120sent": 2065, "\u0120anyway": 2066, "\u0120serv": 2067, "\u0120inform": 2068, "\u0120wear": 2069, "\u0120social": 2070, "\u0120higher": 2071, "ung": 2072, "ips": 2073, "\u0120relationship": 2074, "ned": 2075, "\u0120recommend": 2076, "\u0120boy": 2077, "sc": 2078, "ery": 2079, "\u0120knew": 2080, "ior": 2081, "\u0120dude": 2082, "\u0120speed": 2083, "outh": 2084, "\u0120imagine": 2085, "\u0120longer": 2086, "ustom": 2087, "\u0120vis": 2088, "\u0120extra": 2089, "\u0120incre": 2090, "\u0120pack": 2091, "mit": 2092, "\u0120consider": 2093, "\u012012": 2094, "ina": 2095, "\u0120drive": 2096, "ounds": 2097, "ending": 2098, "\u0120asking": 2099, "ama": 2100, "\u0120future": 2101, "ison": 2102, "\u0120points": 2103, "\u0120tit": 2104, "\u0120claim": 2105, "oring": 2106, "\u0120except": 2107, "\",": 2108, "\u0120living": 2109, "ape": 2110, "\u0120knows": 2111, "\u0120common": 2112, "\u0120ir": 2113, "\u0120bought": 2114, "\u0120near": 2115, "sed": 2116, "\u0120fem": 2117, "\u0120kinda": 2118, "\u0120Would": 2119, "\u0120Cl": 2120, "\u0120bab": 2121, "\u0120Who": 2122, "\u0120Christ": 2123, "\u0120funny": 2124, "ged": 2125, "\u0120gave": 2126, "\u0120prom": 2127, "\u0120complain": 2128, "pect": 2129, "\u0120slow": 2130, "\u0120ant": 2131, "\u0120straight": 2132, "\u0120relig": 2133, "\u0120beat": 2134, "\u0120mis": 2135, "\u0120easily": 2136, "\u0120dest": 2137, "load": 2138, "\u0120watching": 2139, "RE": 2140, "uro": 2141, "ege": 2142, "aste": 2143, "\u0120music": 2144, "\u0120giving": 2145, "ution": 2146, "\u0120appro": 2147, "wise": 2148, "ift": 2149, "\u0120problems": 2150, "\u0120piec": 2151, "\u0120clean": 2152, "icks": 2153, "ON": 2154, "\u0120totally": 2155, "\u0120fans": 2156, "\u0120teams": 2157, "\u0120typ": 2158, "AN": 2159, "\u0120Man": 2160, "atur": 2161, "\u0120along": 2162, "oud": 2163, "\u0120fit": 2164, "\u0120foc": 2165, "oint": 2166, "icle": 2167, "ari": 2168, "\u0120interested": 2169, "\u0120hop": 2170, "\u0120pract": 2171, "ging": 2172, "\u0120result": 2173, "for": 2174, "roll": 2175, "\u01200": 2176, "\u0120However": 2177, "\u0120techn": 2178, "\u0120send": 2179, "\u0120log": 2180, "ocr": 2181, "\u0120multip": 2182, "\u0120Let": 2183, "ugg": 2184, "of": 2185, "\u0120De": 2186, "\u0120foot": 2187, "\u0120invest": 2188, "yle": 2189, "che": 2190, "\u0120require": 2191, "\u0120worst": 2192, "\u0120phys": 2193, "ively": 2194, "\u0120land": 2195, "\u0120moment": 2196, "\u0120random": 2197, "\u0120wall": 2198, "\u0120needed": 2199, "\u0120realize": 2200, "oss": 2201, "\u012019": 2202, "\u0120Thank": 2203, "\u0120process": 2204, "\u0120vs": 2205, "\u0120follow": 2206, "\u0120press": 2207, "ral": 2208, "\u0120box": 2209, "\u0120vote": 2210, "\u0120neg": 2211, "\u0120comb": 2212, "\u0120feeling": 2213, "\u0120Jo": 2214, "idence": 2215, "\u0120age": 2216, "mon": 2217, "ising": 2218, "\u0120Have": 2219, "\u0120upd": 2220, "\u0120anim": 2221, "\u0120cal": 2222, "\u0120community": 2223, "\u0120city": 2224, "\u0120paid": 2225, "\u0120drop": 2226, "\u0120American": 2227, "\u0120ED": 2228, "set": 2229, "AA": 2230, "\u0120custom": 2231, "ses": 2232, "iny": 2233, "\u0120thanks": 2234, "head": 2235, "\u0120Sc": 2236, "orts": 2237, "\u0120series": 2238, "\u0120characters": 2239, "\u0120listen": 2240, "\u0120history": 2241, "aut": 2242, "\u0120version": 2243, "\u0120cent": 2244, "\u0120alone": 2245, "\u0120match": 2246, "\u0120space": 2247, "ium": 2248, "\u0120product": 2249, "\u0120online": 2250, "\u0120accept": 2251, "\u0120ton": 2252, "shit": 2253, "\u0120weight": 2254, "\u0120easier": 2255, "\u0120program": 2256, "\u0120joke": 2257, "\u0120cas": 2258, "omb": 2259, "\u0120camp": 2260, "\u0120looked": 2261, "\u0120discuss": 2262, "\u0120cult": 2263, "\u0120quality": 2264, "\u0120children": 2265, "\u0120squ": 2266, "\u0120wind": 2267, "ING": 2268, "OO": 2269, "lish": 2270, "ified": 2271, "\u0120value": 2272, "\u0120meet": 2273, "\u0120drug": 2274, "\u0120base": 2275, "ata": 2276, "\u0120mine": 2277, "\u0120Ob": 2278, "\u0120mother": 2279, "\u0120crit": 2280, "\u0120includ": 2281, "\u0120perform": 2282, "\u0120respect": 2283, "\u0120gold": 2284, "ror": 2285, "\u0120Ok": 2286, "atic": 2287, "\u0120\u00f0\u0141": 2288, "\u0120content": 2289, "\u0120Mar": 2290, "ES": 2291, "\u0120gone": 2292, "\u0120feels": 2293, "\u0120meant": 2294, "\u0120lea": 2295, "ta": 2296, "\u0120favorite": 2297, "pped": 2298, "ource": 2299, "\u0120bunch": 2300, "\u0120save": 2301, "\u0120wife": 2302, "\u0120seriously": 2303, "\u0120special": 2304, "\u0120ran": 2305, "cl": 2306, "though": 2307, "\u0120choice": 2308, "\u0120college": 2309, "\u0120New": 2310, "unt": 2311, "\u0120roll": 2312, "\u0120comments": 2313, "\u0120reading": 2314, "\u0120cards": 2315, "\u0120After": 2316, "\u0120gives": 2317, "\u0120enem": 2318, "\u0120cir": 2319, "\u0120young": 2320, "\u0120option": 2321, "\u0120avail": 2322, "\u0120personal": 2323, "\u0120bill": 2324, "\u0120impro": 2325, "\u0120conn": 2326, "ls": 2327, "\u0120pen": 2328, "\u0120ment": 2329, "\u0120choo": 2330, "ules": 2331, "\u0120invol": 2332, "work": 2333, "\u0120Which": 2334, "\u0120benef": 2335, "\u0120potent": 2336, "\u0120star": 2337, "\u0120trad": 2338, "\u0120record": 2339, "amer": 2340, "\u0120terrible": 2341, "\u0120serious": 2342, "\u0120Eng": 2343, "que": 2344, "\u0120necess": 2345, "arth": 2346, "\u0120shows": 2347, "\u0120THE": 2348, "\u0120sleep": 2349, "\u0120itself": 2350, "\u0120decent": 2351, "ky": 2352, "\u0120taken": 2353, "\u0120Where": 2354, "\u0120epis": 2355, "\u0120tou": 2356, "\u0120middle": 2357, "?\"": 2358, "\u0120position": 2359, "off": 2360, "\u0120within": 2361, "ero": 2362, "\u0120Su": 2363, "\u0120doubt": 2364, "\u0120Me": 2365, "\u0120hero": 2366, "\u0120employ": 2367, "\u0120mostly": 2368, "ute": 2369, "\u0120Ne": 2370, "\u0120stick": 2371, "ored": 2372, "\u0120PC": 2373, "how": 2374, "arr": 2375, "\u0120:(": 2376, "\u0120key": 2377, "\u0120step": 2378, "hh": 2379, "\u0120ris": 2380, "ony": 2381, "\u0120cat": 2382, "\u0120himself": 2383, "verse": 2384, "\u0120dad": 2385, "ilt": 2386, "\u0120speak": 2387, "cing": 2388, "oun": 2389, "\u0120heav": 2390, "\u0120obviously": 2391, "\u0120Sorry": 2392, "iced": 2393, "ED": 2394, "\u0120App": 2395, "par": 2396, "\u0120occ": 2397, "ulation": 2398, ".)": 2399, "\u0120average": 2400, "iot": 2401, "lex": 2402, "\u0120access": 2403, "\u0120whether": 2404, "\u0120dumb": 2405, "att": 2406, "\u0120bur": 2407, "\u0120late": 2408, "\u0120rece": 2409, "\u0120Was": 2410, "\u0120above": 2411, "anger": 2412, "\u0120coun": 2413, "\u0120allowed": 2414, "gest": 2415, "sy": 2416, "ese": 2417, "\u0120Canad": 2418, "ends": 2419, "\u0120available": 2420, "\u0120killed": 2421, "\u0120simple": 2422, "\u0120forget": 2423, "icult": 2424, "\u0120news": 2425, "empt": 2426, "\u0120original": 2427, "\u0120starting": 2428, "irt": 2429, "\u0120Ser": 2430, "\u0120ra": 2431, "\u0120success": 2432, "ology": 2433, "\u0120prefer": 2434, "\u0120EDIT": 2435, "\u0120internet": 2436, "\u0120term": 2437, "\u0120mist": 2438, "istic": 2439, "\u0120lower": 2440, "ges": 2441, "\u0120link": 2442, "\u0120comput": 2443, "\u0120personally": 2444, "\u0120Reddit": 2445, "\u0120200": 2446, "\u0120information": 2447, "\u0120His": 2448, "\u0120song": 2449, "\u0120cannot": 2450, "\u0120bal": 2451, "\u0120sever": 2452, "\u0120?": 2453, "\u0120[": 2454, "\u0120swe": 2455, "form": 2456, "\u0120la": 2457, "\u0120deser": 2458, "\u0120Fuck": 2459, "\u0120conv": 2460, "action": 2461, "\u0120bi": 2462, "\u0120shitty": 2463, "\u0120mot": 2464, "\u0120skin": 2465, "\u0120fill": 2466, "imate": 2467, "\u0120picture": 2468, "aming": 2469, "\u0120annoy": 2470, "\u0120priv": 2471, "!\"": 2472, "\u0120assume": 2473, "aper": 2474, "\u0120Get": 2475, "arently": 2476, "ok": 2477, "\u0120doll": 2478, "\u0120pun": 2479, "oogle": 2480, "\u0120lack": 2481, "ube": 2482, "\u0120er": 2483, "oke": 2484, "\u0120heart": 2485, "\u0120begin": 2486, "\u0120imm": 2487, "\u0120okay": 2488, "\u0120difficult": 2489, "\u0120hair": 2490, "\u0120~": 2491, "\u0120avoid": 2492, "\u0120words": 2493, "\u0120regard": 2494, "\u0120currently": 2495, "ping": 2496, "\u0120hands": 2497, "\u0120questions": 2498, "\u0120manag": 2499, "ruct": 2500, "iculous": 2501, "\u0120walk": 2502, "back": 2503, "\u0120police": 2504, "aa": 2505, "acking": 2506, "\u0120telling": 2507, "my": 2508, "\u0120Gu": 2509, "ware": 2510, "\u0120ability": 2511, "\u0120jump": 2512, "\u0120force": 2513, "\u0120throw": 2514, "\u0120buying": 2515, "ended": 2516, "\u0120sold": 2517, "\u0120willing": 2518, "astic": 2519, "\u0120America": 2520, "\u0120drink": 2521, "\u0120decided": 2522, "\u012040": 2523, "\u0120offic": 2524, "\u0120enc": 2525, "room": 2526, "30": 2527, "\u0120clearly": 2528, "\u0120incred": 2529, "\u0120specific": 2530, "\u0120several": 2531, "\u0120focus": 2532, "\u0120local": 2533, "ency": 2534, "\u0120viol": 2535, "\u0120changed": 2536, "\u0120teac": 2537, "reddit": 2538, "\u0120size": 2539, "\u0120recently": 2540, "\u0120tar": 2541, "angu": 2542, "IS": 2543, "\u0120PS": 2544, "ucks": 2545, "\u0120expensive": 2546, "enty": 2547, "\u0120becom": 2548, "\u0120port": 2549, "?!": 2550, "\u0120fur": 2551, "\u0120screen": 2552, "\u0120baby": 2553, "ays": 2554, "\u0120waiting": 2555, "idering": 2556, "lus": 2557, "\u0120Ad": 2558, "\u0120cry": 2559, "\u0120advice": 2560, "\u0120Ke": 2561, "arely": 2562, "cks": 2563, "\u0120desc": 2564, "\u0120phot": 2565, "\u0120IS": 2566, "\u0120towards": 2567, "\u0120respons": 2568, "fortun": 2569, "ript": 2570, "akes": 2571, "\u0120jud": 2572, "ams": 2573, "\u0120AN": 2574, "\u0120reasons": 2575, "\u0120return": 2576, "ze": 2577, "\u0120Somet": 2578, "\u0120spot": 2579, "rest": 2580, "\u0120argument": 2581, "\u0120across": 2582, "\u0120edit": 2583, "oly": 2584, "\u0120|": 2585, "----": 2586, "\u0120paying": 2587, "\u0120fat": 2588, "\u0120soci": 2589, "\u0120bullshit": 2590, "\u0120partic": 2591, "\u0120tur": 2592, "\u0120gain": 2593, "EA": 2594, "het": 2595, "\u0120girls": 2596, "\u0120War": 2597, "\u0120ridiculous": 2598, "apt": 2599, "\u0120text": 2600, "emp": 2601, "orth": 2602, "pro": 2603, "\u0120bed": 2604, "\u012018": 2605, "\u0120extremely": 2606, "lim": 2607, "\u0120legal": 2608, "box": 2609, "medi": 2610, "\u0120shop": 2611, "\u0120ways": 2612, "icking": 2613, "lying": 2614, "\u0120turned": 2615, "\u0120Pr": 2616, "\u0120multiple": 2617, "ination": 2618, "\u0120Russ": 2619, "\u0120hurt": 2620, "got": 2621, "\u0120worry": 2622, "\u0120release": 2623, "izz": 2624, "\u0120blood": 2625, "\u0120rules": 2626, "go": 2627, "\u0120safe": 2628, "\u0120media": 2629, "\u0120net": 2630, "\u0120range": 2631, "what": 2632, "\u0120These": 2633, "\u0120spent": 2634, "\u0120Gr": 2635, "\u0120Sure": 2636, "\u0120Che": 2637, "eal": 2638, "\u0120fucked": 2639, "\u0120popular": 2640, "ressed": 2641, "ected": 2642, "\u0120road": 2643, "\u0120finally": 2644, "conom": 2645, "\u0120however": 2646, "EE": 2647, "\u0120places": 2648, "\u0120Rep": 2649, "\u0120ground": 2650, "ibility": 2651, "\u0120offer": 2652, "\u0120weak": 2653, "urope": 2654, "ister": 2655, "\u0120piss": 2656, "ability": 2657, "ands": 2658, "\u0120service": 2659, "\u0120certainly": 2660, "200": 2661, "idered": 2662, "\u0120#": 2663, "\u0120prop": 2664, "just": 2665, "\u0120stri": 2666, "ox": 2667, "rap": 2668, "\u0120league": 2669, "\u0120attention": 2670, "\u0120destro": 2671, "ser": 2672, "\u0120Honest": 2673, "\u0120eyes": 2674, "\u0120Hey": 2675, "\u0120max": 2676, "\u0120load": 2677, "\u0120putting": 2678, "\u0120compan": 2679, "\u0120doct": 2680, "\u0120considered": 2681, "\u0120deep": 2682, "\u0120dark": 2683, "CK": 2684, "\u0120stream": 2685, "ury": 2686, "\u0120inside": 2687, "vies": 2688, "\u0120bott": 2689, "\u0120haha": 2690, "reci": 2691, "book": 2692, "ction": 2693, "\u0120disapp": 2694, "lement": 2695, "\u0120door": 2696, "\u0120lab": 2697, "\u0120surprised": 2698, "\u0120track": 2699, "bit": 2700, "\u0120Pre": 2701, "\u0120beha": 2702, "\u0120suck": 2703, "\u0120lives": 2704, "\u0120downvot": 2705, "ization": 2706, "\u0120writ": 2707, "\u0120Of": 2708, "\u0120ear": 2709, "\u0120concern": 2710, "come": 2711, "\u0120disag": 2712, "\u0120Com": 2713, "\u0120complete": 2714, "\u0120ult": 2715, "\u0120changes": 2716, "\u0120choose": 2717, "\u0120forward": 2718, "\u0120engine": 2719, "ledge": 2720, "haps": 2721, "\u0120building": 2722, "\u0120posts": 2723, "\u0120fund": 2724, "\u0120piece": 2725, "\u0120slight": 2726, "ender": 2727, "\u0120econom": 2728, "which": 2729, "\u0120glad": 2730, "\u0120known": 2731, "\u0120assh": 2732, "\u0120draw": 2733, "\u0120convers": 2734, "\u0120generally": 2735, "\u0120est": 2736, "\u0120majority": 2737, "\u0120carry": 2738, "\u0120Fl": 2739, "cer": 2740, "ades": 2741, "\u0120Please": 2742, "\u0120...": 2743, "oles": 2744, "aced": 2745, "\u0120subreddit": 2746, "\u0120dick": 2747, "\u0120million": 2748, "\u0120field": 2749, "\u0120While": 2750, "\u0120setting": 2751, "arily": 2752, "\u0120af": 2753, "OR": 2754, "\u0120,": 2755, "\u0120immedi": 2756, "\u0120round": 2757, "\u0120grow": 2758, "\u0120da": 2759, "\u0120town": 2760, "\u0120trust": 2761, "\u0120gotten": 2762, "\u0120YOU": 2763, "\u0120langu": 2764, "de": 2765, "\u0120rese": 2766, "llen": 2767, "\u0120report": 2768, "uly": 2769, "\u0120Tw": 2770, "\u0120rate": 2771, "\u0120project": 2772, "irm": 2773, "ivid": 2774, "\u0120items": 2775, "\u0120target": 2776, "ails": 2777, "ression": 2778, "amn": 2779, "\u0120title": 2780, "over": 2781, "hip": 2782, "aff": 2783, "__": 2784, "eral": 2785, "\u0120Hope": 2786, "ker": 2787, "\u0120brother": 2788, "uth": 2789, "ears": 2790, "\u0120date": 2791, "\u0120credit": 2792, "\u0120cover": 2793, "\u0120missing": 2794, "\u0120mentioned": 2795, "reed": 2796, "ances": 2797, "\u0120Only": 2798, "\u0120spell": 2799, "\u0120ready": 2800, "\u0120First": 2801, "\u0120Ag": 2802, "izing": 2803, "erence": 2804, "\u0120ended": 2805, "min": 2806, "\u0120feed": 2807, "nam": 2808, "\u0120quickly": 2809, "\u0120data": 2810, "key": 2811, "\u0120deg": 2812, "\u0120books": 2813, "\u0120numb": 2814, "\u0120lots": 2815, "af": 2816, "aster": 2817, "\u0120Con": 2818, "ooks": 2819, "\u012016": 2820, "\u0120cy": 2821, "gon": 2822, "\u0120tick": 2823, "\u0120Qu": 2824, "\u0120jobs": 2825, "light": 2826, "\u0120boss": 2827, "\u0120thank": 2828, "\u0120gay": 2829, "\u0120posted": 2830, "\u0120mach": 2831, "time": 2832, "ured": 2833, "\u0120purp": 2834, "echan": 2835, "erman": 2836, "\u0120terms": 2837, "\u012025": 2838, "The": 2839, "bers": 2840, "\u0120Honestly": 2841, "\u0120movies": 2842, "\u0120ner": 2843, "\u0120legit": 2844, "\u0120somewhere": 2845, "\u0120calling": 2846, "do": 2847, "\u0120div": 2848, "\u0120Will": 2849, "vant": 2850, "\u0120biggest": 2851, "\u0120added": 2852, "\u0120profess": 2853, "ai": 2854, "\u0120moving": 2855, "\u0120flo": 2856, "\u0120Wor": 2857, "\u0120anti": 2858, "ST": 2859, "\u0120style": 2860, "\u0120article": 2861, "\u0120sucks": 2862, "MO": 2863, "\u0120apart": 2864, "ney": 2865, "\u0120appreci": 2866, "\u0120Wow": 2867, "\u0120compared": 2868, "cking": 2869, "\u0120computer": 2870, "but": 2871, "\u0120grand": 2872, "ration": 2873, "\u0120thats": 2874, "\u012090": 2875, "\u0120evidence": 2876, "\u0120surv": 2877, "\u0120block": 2878, "\u0120illeg": 2879, "\u0120threat": 2880, "\u0120hasn": 2881, "\u0120emot": 2882, "\u0120Those": 2883, "oph": 2884, "ouble": 2885, "\u0120regular": 2886, "\u0120helps": 2887, "\u0120Per": 2888, "oil": 2889, "\u0120notice": 2890, "\u0120Ind": 2891, "\u0120race": 2892, "\u0120share": 2893, "\u0120Cha": 2894, "\u0120TV": 2895, "\u0120curious": 2896, "\u0120mix": 2897, "\u0120susp": 2898, "\u0120cars": 2899, "80": 2900, "\u0120bigger": 2901, "\u0120upgr": 2902, "\u0120cant": 2903, "arb": 2904, "PS": 2905, "\u0120brain": 2906, "\u0120kept": 2907, "\u0120map": 2908, "\u0120parts": 2909, "ding": 2910, "\u012014": 2911, "gn": 2912, "\u0120organ": 2913, "\u0120create": 2914, "den": 2915, "\u0120minim": 2916, "fortunately": 2917, "\u0120goal": 2918, "onse": 2919, "\u0120vol": 2920, "\u0120attract": 2921, "\u0120bag": 2922, "\u0120Europe": 2923, "ival": 2924, "\u0120From": 2925, "\u0120weren": 2926, "\u0120mur": 2927, "eed": 2928, "iod": 2929, "\u0120Still": 2930, "\u0120companies": 2931, "\u0120lock": 2932, "\u0120Lol": 2933, "\u0120sick": 2934, "\u0120kick": 2935, "\u0120Sw": 2936, "cher": 2937, "vert": 2938, "\u0120tank": 2939, "ergy": 2940, "\u0120smart": 2941, "\u0120tend": 2942, "\u0120considering": 2943, "\u0120otherwise": 2944, "\u0120options": 2945, "uel": 2946, "\u012060": 2947, "\u0120episode": 2948, "\u0120Ste": 2949, "\u0120Sha": 2950, "\u0120suff": 2951, "\u0120mechan": 2952, "\u0120write": 2953, "\u0120oppos": 2954, "\u0120rout": 2955, "\u0120continue": 2956, "\u0120cross": 2957, "\u0120total": 2958, "dition": 2959, "\u0120beaut": 2960, "apan": 2961, "board": 2962, "\u0120eventually": 2963, "\u0120laugh": 2964, "\u0120nobody": 2965, "port": 2966, "ana": 2967, "\u0120standard": 2968, "\u0120died": 2969, "\u0120female": 2970, "\u0120cast": 2971, "\u0120code": 2972, "aks": 2973, "\u0120eye": 2974, "\u012011": 2975, "erm": 2976, "\u0120tre": 2977, "\u0120older": 2978, "\u0120aware": 2979, "anna": 2980, "\u0120Other": 2981, "AM": 2982, "\u0120sil": 2983, "put": 2984, "\u0120political": 2985, "\u0120weapons": 2986, "\u0120obvious": 2987, "60": 2988, "\u0120cand": 2989, "fortable": 2990, "\u0120;": 2991, "pping": 2992, "\u0120fant": 2993, "\u0120potential": 2994, "\u0120seconds": 2995, "\u0120push": 2996, "\u0120disagree": 2997, "\u0120happening": 2998, "\u0120Really": 2999, "aur": 3000, "mor": 3001, "\u0120blue": 3002, "\u0120society": 3003, "\u0120four": 3004, "\u0120soft": 3005, "\u0120defense": 3006, "\u0120weapon": 3007, "\u0120numbers": 3008, "\u0120rad": 3009, "\u0120liber": 3010, "\u0120plenty": 3011, "\u0120Mc": 3012, "irth": 3013, "\u0120double": 3014, "\u0120individ": 3015, "\u0120Ph": 3016, "\u0120afford": 3017, "\u0120stopped": 3018, "\u0120risk": 3019, "\u0120contract": 3020, "\u0120morning": 3021, "\u0120eating": 3022, "\u0120Act": 3023, "lit": 3024, "\u0120ident": 3025, "\u0120compar": 3026, "\u0120solid": 3027, "\u0120tour": 3028, "\u0120response": 3029, "ray": 3030, "\u0120contact": 3031, "\u0120watched": 3032, "\u0120experien": 3033, "\u0120countries": 3034, "\u0120third": 3035, "hor": 3036, "\u0120loved": 3037, "AR": 3038, "\u0120liked": 3039, "rim": 3040, "EN": 3041, "\u0120natur": 3042, "\u0120hang": 3043, "\u0120camer": 3044, "mmer": 3045, "\u0120deb": 3046, "band": 3047, "rel": 3048, "\u0120challen": 3049, "\u0120heal": 3050, "\u0120expl": 3051, "\u0120ess": 3052, "\u0120Great": 3053, "\u0120dream": 3054, "\u0120Could": 3055, "\u0120guns": 3056, "\u0120progress": 3057, "\u0120aud": 3058, "you": 3059, "\u0120server": 3060, "ilities": 3061, "\u0120polic": 3062, "\u0120action": 3063, "iful": 3064, "\u0120purcha": 3065, "\u0120scene": 3066, "osp": 3067, "15": 3068, "ites": 3069, "itary": 3070, "\u0120charge": 3071, "\u0120Same": 3072, "\u0120loss": 3073, "\u0120possibly": 3074, "\u0120meaning": 3075, "\u0120involved": 3076, "\u0120object": 3077, "\u0120ord": 3078, "lay": 3079, "bl": 3080, "\u0120attempt": 3081, "miss": 3082, "\u0120pus": 3083, "\u0120somehow": 3084, "\u0120lad": 3085, "\u0120sat": 3086, "son": 3087, "\u0120switch": 3088, "\u0120further": 3089, "\u0120champ": 3090, "\u0120racist": 3091, "ipping": 3092, "esus": 3093, "\u0120board": 3094, "\u0120dom": 3095, "\u0120killing": 3096, "\u0120desp": 3097, "\u0120counter": 3098, "inc": 3099, "\u0120IT": 3100, "\u0120--": 3101, "\u0120den": 3102, "rom": 3103, "ifically": 3104, "urance": 3105, "\u0120gear": 3106, "\u0120immediately": 3107, "dy": 3108, "\u0120anywhere": 3109, "ey": 3110, "\u0120thinks": 3111, "ived": 3112, "kend": 3113, "\u0120Wait": 3114, "\u0120club": 3115, "\u0120circ": 3116, "iet": 3117, "\u0120laws": 3118, "\u0120deck": 3119, "\u0120educ": 3120, "\u0120enemy": 3121, "\u0120bud": 3122, "hn": 3123, "\u0120shut": 3124, "ext": 3125, "\u0120infl": 3126, "\u0120faster": 3127, "\u0120danger": 3128, "\u0120driving": 3129, "\u0120period": 3130, "illy": 3131, "\u0120brand": 3132, "\u0120manage": 3133, "\u0120By": 3134, "\u0120SO": 3135, "\u0120harder": 3136, "\u0120Try": 3137, "\u0120English": 3138, "\u0120blo": 3139, "\u0120losing": 3140, "\u0120nearly": 3141, "gend": 3142, "ume": 3143, "\u0120hoping": 3144, "now": 3145, "\u0120consist": 3146, "\u0120energy": 3147, "\u0120father": 3148, "\u0120knowing": 3149, "\u0120separ": 3150, "OW": 3151, "\u0120lif": 3152, "\u0120male": 3153, "\u0120entirely": 3154, "\u0120mode": 3155, "\u0120Hell": 3156, "\u0120paper": 3157, "\u0120que": 3158, "AS": 3159, "!!!": 3160, "\u0120reduc": 3161, "\u0120bother": 3162, "rupt": 3163, "\u0120note": 3164, "\u0120Dem": 3165, "\u0120minor": 3166, "\u0120office": 3167, "\u0120meth": 3168, "\u0120fairly": 3169, "\u0120Everyone": 3170, "\u0120pan": 3171, "11": 3172, "rit": 3173, "\u0120destroy": 3174, "\u0120broken": 3175, "40": 3176, "\u0120sitting": 3177, "pri": 3178, "rd": 3179, "\u0120travel": 3180, "\u0120page": 3181, "\u0120decision": 3182, "\u0120color": 3183, "\u0120rock": 3184, "ources": 3185, "\u0120dig": 3186, "\u0120prim": 3187, "\u0120install": 3188, "\u0120NOT": 3189, "oooo": 3190, "ossible": 3191, "\u0120culture": 3192, "\u0120ang": 3193, "\u0120forgot": 3194, "ipped": 3195, "ea": 3196, "\u0120rights": 3197, "urity": 3198, "\u0120Since": 3199, "\u0120signific": 3200, "\u0120massive": 3201, "\u0120advant": 3202, "\u0120improve": 3203, "\u0120basic": 3204, "\u0120autom": 3205, "\u0120lay": 3206, "erc": 3207, "\u0120annoying": 3208, "\u0120rule": 3209, "ortun": 3210, "\u0120odd": 3211, "\u0120knowledge": 3212, "\u0120truly": 3213, "ux": 3214, "\u0120mad": 3215, "\u0120negative": 3216, "\u0120Super": 3217, "\u0120twice": 3218, "\u0120son": 3219, "\u0120update": 3220, "\u0120hus": 3221, "\u0120bottom": 3222, "\u0120table": 3223, "iction": 3224, "\u0120handle": 3225, "\u0120protect": 3226, "\u0120reality": 3227, "\u0120individual": 3228, "ym": 3229, "\u0120controll": 3230, "\u0120fully": 3231, "\u0120noticed": 3232, "\u0120burn": 3233, "\u0120decide": 3234, "\u0120built": 3235, "eng": 3236, "\u0120Sm": 3237, "\u0120admit": 3238, "\u0120illegal": 3239, "\u0120role": 3240, "\u0120moved": 3241, "\u0120uses": 3242, "\u0120inj": 3243, "\u0120language": 3244, "\u0120fell": 3245, "\u0120starts": 3246, "\u0120UK": 3247, "\u0120fighting": 3248, "\u0120indust": 3249, "tery": 3250, "\u0120train": 3251, "\u0120source": 3252, "\u0120weekend": 3253, "\u0120Never": 3254, "\u0120Probably": 3255, "\u0120ship": 3256, "\u0120Rem": 3257, "\u0120plays": 3258, "yond": 3259, "\u0120pers": 3260, "\u0120message": 3261, "\u0120Plus": 3262, "\u0120states": 3263, "\u0120Black": 3264, "\u0120psy": 3265, "\u0120Japan": 3266, "\u0120awful": 3267, "\u0120bon": 3268, "\u0120none": 3269, "\u0120physical": 3270, "\u0120cash": 3271, "\u0120constantly": 3272, "bal": 3273, "\u0120Once": 3274, "\u0120activ": 3275, "\u0120Right": 3276, "uz": 3277, "\u0120env": 3278, "ald": 3279, "ask": 3280, "raph": 3281, "\u0120behav": 3282, "\u0120purpose": 3283, "\u0120apparently": 3284, "oes": 3285, "\u0120Seriously": 3286, "\u0120effort": 3287, "\u0120stuck": 3288, "\u0120brought": 3289, "\u0120plus": 3290, "\u0120oil": 3291, "\u0120Here": 3292, "\u0120teacher": 3293, "\u0120buff": 3294, "\u0120site": 3295, "\u0120Aust": 3296, "iding": 3297, "awn": 3298, "\u0120item": 3299, "\u0120birth": 3300, "\u0120German": 3301, "\u0120^^": 3302, "\u0120voice": 3303, "mb": 3304, "gs": 3305, "\u0120Canada": 3306, "\u0120egg": 3307, "\u0120strugg": 3308, "\u0120useful": 3309, "ivil": 3310, "\u0120sens": 3311, "\u0120lines": 3312, "\u0120adult": 3313, "OS": 3314, "ili": 3315, "\u0120commit": 3316, "\u0120stock": 3317, "\u0120heavy": 3318, "\u0120touch": 3319, "\u0120incredibly": 3320, "\u0120More": 3321, "\u0120positive": 3322, "\u0120learned": 3323, "hood": 3324, "\u0120hom": 3325, "resent": 3326, "\u0120tho": 3327, "OL": 3328, "ipe": 3329, "\u0120crap": 3330, "uts": 3331, "\u0120sexual": 3332, "\u0120ce": 3333, "cent": 3334, "\u0120videos": 3335, "\u0120career": 3336, "\u0120horrible": 3337, "\u0120review": 3338, "*.": 3339, "\u0120increase": 3340, "\u0120yell": 3341, "\u0120remain": 3342, "\u0120writing": 3343, "\u0120Got": 3344, "\u0120cold": 3345, "\u0120oper": 3346, "ises": 3347, "friend": 3348, "\u0120skills": 3349, "\u0120battle": 3350, "ishing": 3351, "\u0120training": 3352, "erial": 3353, "bor": 3354, "\u0120Mic": 3355, "\u0120und": 3356, "\u0120vari": 3357, "\u0120trouble": 3358, "\u0120religion": 3359, "\u0120ut": 3360, "\u0120bank": 3361, "\u0120members": 3362, "VE": 3363, "\u0120practice": 3364, "\u0120film": 3365, "eth": 3366, "\u0120slightly": 3367, "\u0120fault": 3368, "\u0120concept": 3369, "\u0120conversation": 3370, "\u0120vict": 3371, "\u0120explo": 3372, "\u0120thous": 3373, "\u0120Google": 3374, "\u0120tool": 3375, "bum": 3376, "\u0120plat": 3377, "\u0120blame": 3378, "\u0120wanna": 3379, "\u0120directly": 3380, "\u0120rap": 3381, "ases": 3382, "fl": 3383, "ev": 3384, "\u0120Gen": 3385, "order": 3386, "asc": 3387, "anced": 3388, "por": 3389, "fs": 3390, "\u0120provide": 3391, "\u0120model": 3392, "\u0120info": 3393, "hol": 3394, "dden": 3395, "\u0120final": 3396, "\u0120ahead": 3397, "\u0120present": 3398, "vote": 3399, "\u0120band": 3400, "ffic": 3401, "\u0120military": 3402, "\u0120remind": 3403, "\u012080": 3404, "\u0120pred": 3405, "iron": 3406, "\u012013": 3407, "\u0120chick": 3408, "lier": 3409, "\u0120lear": 3410, "\u0120truth": 3411, "\u0120webs": 3412, "terday": 3413, "\u0120impossible": 3414, "ii": 3415, "\u0120particular": 3416, "\u0120\u00f0\u0141\u013a": 3417, "\u0120fear": 3418, "\u0120fac": 3419, "\u0120sudden": 3420, "ground": 3421, "\u0120seemed": 3422, "\u0120specifically": 3423, "\u0120excited": 3424, "\u0120Star": 3425, "asy": 3426, "\u0120Def": 3427, "ners": 3428, "\u0120accur": 3429, "\u0120stories": 3430, "entially": 3431, "\u0120grab": 3432, "oon": 3433, "\u0120minute": 3434, "\u0120Car": 3435, "\u0120prior": 3436, "\u0120Int": 3437, "\u0120maint": 3438, "\u0120Dis": 3439, "\u0120pret": 3440, "\u0120levels": 3441, "\u0120anal": 3442, "\u0120respond": 3443, "\u0120finish": 3444, "\u0120rev": 3445, "\u0120insurance": 3446, "\u0120dollars": 3447, "bed": 3448, "\u0120kit": 3449, "\u0120wondering": 3450, "\u0120husband": 3451, "\u0120leaving": 3452, "lfriend": 3453, "hel": 3454, "\u0120catch": 3455, "\u0120waste": 3456, "\u0120interview": 3457, "\u0120screw": 3458, "\u0120performance": 3459, "\u012024": 3460, "arant": 3461, "\u0120Republic": 3462, "using": 3463, "ators": 3464, "VER": 3465, "\u0120missed": 3466, "\u0120Jesus": 3467, "\u0120score": 3468, "ooking": 3469, "\u0120released": 3470, "\u0120ST": 3471, "\u0120Look": 3472, "\u0120caught": 3473, "\u0120keeping": 3474, "aked": 3475, "70": 3476, "\u0120affect": 3477, "ued": 3478, "\u0120mob": 3479, "\u0120realized": 3480, "12": 3481, "\u0120opportun": 3482, "raft": 3483, "\u0120beautiful": 3484, "\u0120idiot": 3485, "\u0120asshole": 3486, "\u0120ur": 3487, "rated": 3488, "\u0120research": 3489, "\u0120Nice": 3490, "\u0120advantage": 3491, "esides": 3492, "olution": 3493, "\u0120Cal": 3494, "\u0120doctor": 3495, "\u0120including": 3496, "\u0120material": 3497, "iring": 3498, "\u0120host": 3499, "\u0120ble": 3500, "\u0120John": 3501, "\u0120clot": 3502, "sec": 3503, "\u0120following": 3504, "ogn": 3505, "\u0120selling": 3506, "\u0120prevent": 3507, "\u0120mic": 3508, "100": 3509, "\u0120fake": 3510, "\u0120private": 3511, "\u0120rare": 3512, "\u0120Inst": 3513, "\u0120album": 3514, "that": 3515, "\u0120ideas": 3516, "\u0120hund": 3517, "aries": 3518, "\u0120overall": 3519, "\u0120finding": 3520, "\u0120FU": 3521, "\u0120Haha": 3522, "\u0120related": 3523, "\u0120Bat": 3524, "\u0120costs": 3525, "\u0120green": 3526, "\u0120Pretty": 3527, "\u0120regul": 3528, "une": 3529, "bing": 3530, "\u0120subject": 3531, "cell": 3532, "ET": 3533, "\u0120hundred": 3534, "\u0120AM": 3535, "\u0120beyond": 3536, "\u0120sweet": 3537, "ley": 3538, "aughter": 3539, "\u0120insane": 3540, "\u0120troll": 3541, "tw": 3542, "\u0120AND": 3543, "\u0120lucky": 3544, "nel": 3545, "aign": 3546, "\u0120learning": 3547, "\u0120limit": 3548, "\u0120raid": 3549, "\u0120theory": 3550, "\u0120became": 3551, "\u0120drugs": 3552, "ule": 3553, "\u0120ten": 3554, "\u0120remove": 3555, "cast": 3556, "\u0120fing": 3557, "\u0120sou": 3558, "wor": 3559, "\u0120powerful": 3560, "\u0120glo": 3561, "ees": 3562, "\u0120Should": 3563, "\u0120appreciate": 3564, "asing": 3565, "\u0120wearing": 3566, "\u0120beer": 3567, "\u0120walking": 3568, "\u0120Esp": 3569, "\u0120grad": 3570, "\u0120camera": 3571, "ij": 3572, "\u0120Dra": 3573, "\u0120Bet": 3574, "\u0120neigh": 3575, "\u0120upset": 3576, "\u0120Sometimes": 3577, "amed": 3578, "ires": 3579, "\u0120frust": 3580, "\u0120becomes": 3581, "\u0120appear": 3582, "\u0120refer": 3583, "\u0120regardless": 3584, "\u0120healthy": 3585, "\u0120forced": 3586, "aul": 3587, "raid": 3588, "\u0120perfectly": 3589, "\u0120repe": 3590, "\u0120psych": 3591, "ached": 3592, "\u0120rent": 3593, "\u0120address": 3594, "itiz": 3595, "AY": 3596, "\u0120meat": 3597, "\u0120cook": 3598, "\u0120banned": 3599, "oura": 3600, "\u0120hun": 3601, "\u0120Te": 3602, "\u0120armor": 3603, "\u0120init": 3604, "ops": 3605, "\u0120income": 3606, "\u0120holding": 3607, "\u0120football": 3608, "\u0120mods": 3609, "\u0120barely": 3610, "chie": 3611, "\u0120bitch": 3612, "\u0120zero": 3613, "\u0120Li": 3614, "\u0120winning": 3615, "\u0120tomor": 3616, "IL": 3617, "\u0120Unless": 3618, "\u0120accident": 3619, "\u0120Person": 3620, "\u0120degree": 3621, "yr": 3622, "\u0120runs": 3623, "\u0120Play": 3624, "\u0120impact": 3625, "\u0120expected": 3626, "\u0120confused": 3627, "\u0120oh": 3628, "vent": 3629, "\u0120Nothing": 3630, "\u0120despite": 3631, "\u0120girlfriend": 3632, "tr": 3633, "\u0120smell": 3634, "\u0120tomorrow": 3635, "\u0120Anyone": 3636, "\u0120yesterday": 3637, "\u0120Looks": 3638, "PU": 3639, "versity": 3640, "inting": 3641, "\u0120prices": 3642, "\u0120vac": 3643, "\u0120necessary": 3644, "\u0120created": 3645, "\u0120mental": 3646, "\u0120born": 3647, "\u0120highly": 3648, "\u0120Damn": 3649, "\u0120lived": 3650, "val": 3651, "\u0120turns": 3652, "\u0120depends": 3653, "\u0120keeps": 3654, "\u0120En": 3655, "\u0120previous": 3656, "\u0120campaign": 3657, "\u0120dun": 3658, "\u0120taxes": 3659, "\u0120pure": 3660, "\u0120Her": 3661, "\u0120Co": 3662, "\u0120gas": 3663, "urch": 3664, "\u0120benefit": 3665, "ids": 3666, "\u0120discussion": 3667, "\u0120magic": 3668, "\u0120esc": 3669, "reg": 3670, "\u0120fol": 3671, "\u0120collect": 3672, "\u0120broke": 3673, "\u0120conserv": 3674, "ural": 3675, "\u0120picked": 3676, "\u0120ver": 3677, "\u0120Obama": 3678, "\u0120daily": 3679, "\u0120WH": 3680, "\u0120Hill": 3681, "\u0120although": 3682, "roduc": 3683, "\u0120Sounds": 3684, "\u0120pregn": 3685, "\u0120deli": 3686, "cohol": 3687, "\u0120method": 3688, "\u0120button": 3689, "\u0120solution": 3690, "lee": 3691, "\u0120pet": 3692, "\u0120porn": 3693, "\u0120copy": 3694, "\u0120core": 3695, "\u0120talent": 3696, "odes": 3697, "uine": 3698, "\u0120mouth": 3699, "\u0120onto": 3700, "\u0120spending": 3701, "\u0120judge": 3702, "\u0120helped": 3703, "ording": 3704, "\u0120reb": 3705, "\u0120Mus": 3706, "\u0120intell": 3707, "ication": 3708, "iest": 3709, "atives": 3710, "\u0120rich": 3711, "\u0120lane": 3712, "\u0120quit": 3713, "\u0120represent": 3714, "\u0120environ": 3715, "\u0120recogn": 3716, "\u0120draft": 3717, "\u0120pow": 3718, "\u0120EU": 3719, "uit": 3720, "atively": 3721, "\u0120removed": 3722, "urs": 3723, "\u0120driver": 3724, "\u0120IN": 3725, "\u0120below": 3726, "\u0120Dep": 3727, "\u0120smaller": 3728, "uses": 3729, "\u0120machine": 3730, "II": 3731, "\u0120Keep": 3732, "\u0120cheaper": 3733, "\u0120married": 3734, "\u0120groups": 3735, "\u0120opposite": 3736, "\u0120stats": 3737, "\u0120afraid": 3738, "\u0120Sec": 3739, "\u0120classes": 3740, "\u0120fed": 3741, "\u0120written": 3742, "ario": 3743, "\u0120balance": 3744, "\u0120modern": 3745, "25": 3746, "\u0120reach": 3747, "\u0120ride": 3748, "\u0120tough": 3749, "\u0120Bas": 3750, "\u0120mistake": 3751, "\u0120population": 3752, "\u0120trip": 3753, "\u0120showing": 3754, "\u0120names": 3755, "\u0120Very": 3756, "\u0120doc": 3757, "\u0120summer": 3758, "\u0120reasonable": 3759, "\u0120limited": 3760, "\u0120understanding": 3761, "\u0120evil": 3762, "\u0120shooting": 3763, "\u0120Especially": 3764, "\u0120taste": 3765, "OM": 3766, "\u0120street": 3767, "~~": 3768, "\u0120wanting": 3769, "\u0120trash": 3770, "\u0120cases": 3771, "\u0120results": 3772, "\u0120events": 3773, "\u0120context": 3774, "31": 3775, "\u0120Id": 3776, "itude": 3777, "well": 3778, "OP": 3779, "\u0120select": 3780, "\u0120Big": 3781, "\u0120forever": 3782, "\u0120oppon": 3783, "\u0120Americans": 3784, "pper": 3785, "ino": 3786, "arc": 3787, "\u0120Wal": 3788, "ups": 3789, "\u0120feet": 3790, "\u0120Dr": 3791, "\u012017": 3792, "face": 3793, "aged": 3794, "sole": 3795, "\u0120argue": 3796, "\u0120sun": 3797, "\u0120guarant": 3798, "\u0120sales": 3799, "\u0120user": 3800, "\u0120boring": 3801, "\u0120dangerous": 3802, "\u0120assuming": 3803, "\u0120gaming": 3804, "\u0120ple": 3805, "\u0120sister": 3806, "\u0120deserve": 3807, "\u0120connect": 3808, "\u0120five": 3809, "\u0120required": 3810, "\u0120Col": 3811, "\u0120court": 3812, "\u0120recent": 3813, "\u0120split": 3814, "\u0120Over": 3815, "\u0120worried": 3816, "\u0120religious": 3817, "\u0120function": 3818, "\u0120Actually": 3819, "\u0120civil": 3820, "\u0120likes": 3821, "\u0120users": 3822, "\u0120security": 3823, "\u0120Sim": 3824, "\u0120upon": 3825, "\u0120prep": 3826, "\u0120;)": 3827, "\u0120bike": 3828, "99": 3829, "\u0120China": 3830, "\u0120natural": 3831, "\u0120beginning": 3832, "\u0120veh": 3833, "'.": 3834, "arian": 3835, "\u0120flat": 3836, "\u0120ignore": 3837, ".....": 3838, "\u0120lat": 3839, "\u0120HA": 3840, "\u0120student": 3841, "down": 3842, "\u0120everywhere": 3843, "\u0120pictures": 3844, "\u0120grind": 3845, "\u0120click": 3846, "\u0120areas": 3847, "\u0120consum": 3848, "\u0120See": 3849, "\u0120Har": 3850, "\u0120achie": 3851, "\u0120spread": 3852, "\u0120doesnt": 3853, "ionally": 3854, "\u0120Hal": 3855, "\u0120coff": 3856, "\u0120gotta": 3857, "\u0120minimum": 3858, "\u0120smoke": 3859, "itor": 3860, "\u0120posting": 3861, "\u0120glass": 3862, "\u0120thoughts": 3863, "\u0120wins": 3864, "\u0120president": 3865, "\u0120wild": 3866, "\u0120properly": 3867, "\u0120students": 3868, "\u0120lie": 3869, "ables": 3870, "\u0120altern": 3871, "\u0120industry": 3872, "\u0120perspect": 3873, "aker": 3874, "\u0120changing": 3875, "\u0120download": 3876, "\u0120budget": 3877, ",\"": 3878, "\u0120chat": 3879, "ID": 3880, "\u0120Fin": 3881, "\u0120Dude": 3882, "enn": 3883, "idge": 3884, "ka": 3885, "\u0120Russia": 3886, "HA": 3887, "atures": 3888, "\u0120floor": 3889, "\u0120ice": 3890, "\u0120perhaps": 3891, "\u0120aim": 3892, "\u0120react": 3893, "\u0120Ab": 3894, "\u0120combat": 3895, "aging": 3896, "ament": 3897, "\u0120occas": 3898, "rand": 3899, "\u0120pressure": 3900, "\u0120email": 3901, "\u0120tier": 3902, "\u0120didnt": 3903, "\u0120finished": 3904, "roid": 3905, "oms": 3906, "\u0120farm": 3907, "riage": 3908, "gers": 3909, "\u0120join": 3910, "\u0120actions": 3911, "\u0120din": 3912, "\u0120apply": 3913, "\u0120dogs": 3914, "\u0120Someone": 3915, "\u0120effects": 3916, "uing": 3917, "\u0120dropped": 3918, "\u0120&#": 3919, "\u0120sem": 3920, "sters": 3921, "\u0120qual": 3922, "\u0120earth": 3923, "\u0120unf": 3924, "\u0120Apple": 3925, "uke": 3926, "\u0120author": 3927, "yn": 3928, "\u0120rough": 3929, "\u0120Seems": 3930, "night": 3931, "\u0120rob": 3932, "\u0120flag": 3933, "\u0120science": 3934, "\u0120fixed": 3935, "\u0120Gl": 3936, "ains": 3937, "\u0120capital": 3938, "\u0120alive": 3939, "\u0120emb": 3940, "\u0120secret": 3941, "\u0120unc": 3942, "\u0120environment": 3943, "imately": 3944, "ott": 3945, "?)": 3946, "\u0120imo": 3947, "ills": 3948, "\u0120mount": 3949, "\u0120ON": 3950, "\u0120earlier": 3951, "\u00c3\u00a9": 3952, "\u0120creep": 3953, "lied": 3954, "\u0120Last": 3955, "\u0120replace": 3956, "\u0120steal": 3957, "ences": 3958, "\u0120strate": 3959, "\u0120scr": 3960, "\u0120sand": 3961, "anc": 3962, "\u0120Ah": 3963, "\u0120comfortable": 3964, "ification": 3965, "\u0120alcohol": 3966, "\u0120medical": 3967, "!!!!": 3968, "ceed": 3969, "\u0120proof": 3970, "\u0120universe": 3971, "\u0120critic": 3972, "anks": 3973, "\u0120IMO": 3974, "mas": 3975, "rs": 3976, "\u0120Min": 3977, "\u0120website": 3978, "\u0120path": 3979, "\u0120AD": 3980, "\u0120Ass": 3981, "\u0120bath": 3982, "icles": 3983, "\u0120Our": 3984, "\u0120candid": 3985, "\u0120Both": 3986, "\u0120iP": 3987, "\u0120Brit": 3988, "\u0120tired": 3989, "aught": 3990, "\u0120profit": 3991, "\u0120nature": 3992, "\u0120confirm": 3993, "\u0120weed": 3994, "\u0120genuine": 3995, "\u0120dry": 3996, "\u0120citiz": 3997, "\u0120angry": 3998, "\u0120swit": 3999, "\u0120crime": 4000, "\u0120active": 4001, "\u0120defend": 4002, "ening": 4003, "\u0120ends": 4004, "itions": 4005, "\u0120Austral": 4006, "\u0120fly": 4007, "mg": 4008, "\u0120Best": 4009, "isions": 4010, "hest": 4011, "\u0120trick": 4012, "\u0120streng": 4013, "\u0120cond": 4014, "\u0120saving": 4015, "asure": 4016, "\u0120Okay": 4017, "\u0120jer": 4018, "\u0120blow": 4019, "\u0120tow": 4020, "alse": 4021, "\u0120Aw": 4022, "ened": 4023, "\u0120Being": 4024, "\u0120humans": 4025, "\u0120console": 4026, "\u0120whenever": 4027, "\u0120battery": 4028, "\u0120perspective": 4029, "\u0120rot": 4030, "\u0120statement": 4031, "\u0120hearing": 4032, "iday": 4033, "\u0120image": 4034, "IC": 4035, "LC": 4036, "\u0120reply": 4037, "\u0120useless": 4038, "\u0120Mon": 4039, "\u0120essentially": 4040, "\u0120Make": 4041, "\u0120types": 4042, "\u0120hosp": 4043, "\u0120Wind": 4044, "\u0120TO": 4045, "\u0120heat": 4046, "anted": 4047, "\u0120search": 4048, "anch": 4049, "\u0120solo": 4050, "\u0120upgrade": 4051, "oices": 4052, "itter": 4053, "\u0120cops": 4054, "\u0120acting": 4055, "\u0120policy": 4056, "\u0120window": 4057, "\u0120Their": 4058, "\u0120Fe": 4059, "\u0120bow": 4060, "\u0120Ro": 4061, "\u0120downvoted": 4062, "\u0120behavior": 4063, "ota": 4064, "\u0120disappoint": 4065, "rench": 4066, "\u0120competitive": 4067, "\u0120budd": 4068, "\u0120park": 4069, "ris": 4070, "\u0120earn": 4071, "\u0120var": 4072, "ading": 4073, "\u0120legend": 4074, "ounce": 4075, "\u0120pair": 4076, "UT": 4077, "\u0120Dark": 4078, "\u0120demand": 4079, "ifying": 4080, "\u0120crow": 4081, "\u0120kills": 4082, "\u0120sports": 4083, "\u0120development": 4084, "\u0120ele": 4085, "\u0120Love": 4086, "\u0120ring": 4087, "\u0120somebody": 4088, "met": 4089, "\u0120Cong": 4090, "\u0120hits": 4091, "\"?": 4092, "zen": 4093, "rees": 4094, "inese": 4095, "\u0120unlike": 4096, "ords": 4097, "can": 4098, "icularly": 4099, "\u0120animals": 4100, "under": 4101, "\u0120laz": 4102, "\u0120~~": 4103, "real": 4104, "DR": 4105, "\u0120logic": 4106, "\u0120fresh": 4107, "\u0120coffee": 4108, "\u0120Char": 4109, "\u0120politics": 4110, "\u0120larger": 4111, "gen": 4112, "\u0120valid": 4113, "\u0120Democr": 4114, "\u0120Cur": 4115, "AC": 4116, "\u0120necessarily": 4117, "\u0120FUCK": 4118, "\u0120shield": 4119, "uu": 4120, "\u0120showed": 4121, "\u0120tem": 4122, "hange": 4123, "\u0120drunk": 4124, "gar": 4125, "\u012070": 4126, "\u0120ending": 4127, "\u0120pulled": 4128, "\u0120Christian": 4129, "agn": 4130, "iles": 4131, "\u0120prove": 4132, "\u0120among": 4133, "iving": 4134, "\u0120King": 4135, "\u0120frequ": 4136, "rict": 4137, "\u0120trail": 4138, "osh": 4139, "\u0120via": 4140, "\u0120depending": 4141, "\u0120separate": 4142, "\u0120scream": 4143, "\u0120gym": 4144, "\u0120World": 4145, "\u0120drinking": 4146, "\u0120Take": 4147, "\u0120cart": 4148, "pet": 4149, "\u0120movement": 4150, "\u0120mer": 4151, "iven": 4152, "\u0120shame": 4153, "\u0120lic": 4154, "ales": 4155, "ga": 4156, "\u0120daughter": 4157, "nces": 4158, "\u0120Face": 4159, "ribe": 4160, "\u0120Holy": 4161, "\u0120master": 4162, "initely": 4163, "\u0120Amaz": 4164, "oe": 4165, "\u0120harm": 4166, "aching": 4167, "atically": 4168, "bh": 4169, "\u0120calls": 4170, "\u0120restaur": 4171, "ds": 4172, "\u0120cell": 4173, "iment": 4174, "\u0120figured": 4175, "rop": 4176, "lies": 4177, "\u0120effective": 4178, "\u0120planning": 4179, "ograph": 4180, "\u0120rape": 4181, "\u0120reaction": 4182, "\u0120contrib": 4183, "ppy": 4184, "\u0120SS": 4185, "tf": 4186, "\u0120OK": 4187, "\u0120include": 4188, "\u0120nor": 4189, "rate": 4190, "\u0120Either": 4191, "\u0120Hopefully": 4192, "\u0120aspect": 4193, "\u0120gender": 4194, "acks": 4195, "\u0120Kore": 4196, "\u0120Ty": 4197, "\u0120education": 4198, "\u0120request": 4199, "arm": 4200, "\u0120talked": 4201, "\u0120prem": 4202, "\u0120ya": 4203, "\u0120national": 4204, "\u0120somewhat": 4205, "\u0120feelings": 4206, "\u0120percent": 4207, "\u0120breat": 4208, "\u0120adding": 4209, "\u0120:/": 4210, "\u0120crim": 4211, "\u0120ignor": 4212, "\u0120folks": 4213, "ension": 4214, "AL": 4215, "\u0120products": 4216, "\u0120tip": 4217, "\u0120moves": 4218, "FL": 4219, "\u0120direction": 4220, "\u0120attacks": 4221, "\u0120pissed": 4222, "kin": 4223, "iers": 4224, "\u0120boost": 4225, "oh": 4226, "\u0120victim": 4227, "\u0120yours": 4228, "\u0120Cons": 4229, "\u0120democr": 4230, "tion": 4231, "\u0120influ": 4232, "\u0120scared": 4233, "\u0120Net": 4234, "\u0120lets": 4235, "\u0120strange": 4236, "spect": 4237, "\u0120sale": 4238, "\u0120plot": 4239, "\u0120Bro": 4240, "\u0120excuse": 4241, "ession": 4242, "\u0120Sy": 4243, "\u0120Basically": 4244, "\u0120suppose": 4245, "\u0120file": 4246, "\u0120^": 4247, "\u0120AT": 4248, "\u0120professional": 4249, "\u0120snow": 4250, "arbage": 4251, "viously": 4252, "\u0120blind": 4253, "\u0120exclus": 4254, "\u0120suddenly": 4255, "\u0120nerf": 4256, "\u0120silly": 4257, "\u0120Doesn": 4258, "\u0120tag": 4259, "uh": 4260, "uy": 4261, "field": 4262, "lam": 4263, "\u0120feature": 4264, "\u0120temp": 4265, "iver": 4266, "\u0120sched": 4267, "\u0120shots": 4268, "\u0120traffic": 4269, "\u0120closer": 4270, "\u0120speaking": 4271, "\u0120graph": 4272, "\u0120Bar": 4273, "\u0120delet": 4274, "\u0120wrote": 4275, "\u0120ped": 4276, "\u0120till": 4277, "\u0120corpor": 4278, "\u0120sides": 4279, "\u0120planet": 4280, "\u0120unique": 4281, "\u0120wel": 4282, "\u0120Isn": 4283, "\u0120boyfriend": 4284, "\u0120El": 4285, "\u0120Personally": 4286, "\u0120strength": 4287, "illa": 4288, "rant": 4289, "hy": 4290, "aly": 4291, "\u0120opportunity": 4292, "\u0120Except": 4293, "arter": 4294, "\u0120Add": 4295, "\u0120North": 4296, "\u0120resources": 4297, "\u0120marriage": 4298, "\u0120election": 4299, "\u0120breaking": 4300, "\u0120wood": 4301, "\u0120stage": 4302, "\u0120background": 4303, "\u0120wont": 4304, "\u0120knock": 4305, "amb": 4306, "\u0120software": 4307, "\u0120standing": 4308, "usion": 4309, "\u0120opinions": 4310, "\u0120hyp": 4311, "ann": 4312, "BA": 4313, "uce": 4314, "\u0120uns": 4315, "\u0120hous": 4316, "ica": 4317, "\u0120disg": 4318, "\u0120ticket": 4319, "\u0120tells": 4320, "aps": 4321, "\u0120tiny": 4322, "ients": 4323, "\u0120offense": 4324, "\u0120pub": 4325, "\u0120memory": 4326, "\u0120safety": 4327, "\u0120requires": 4328, "\u0120GT": 4329, "dow": 4330, "\u0120gameplay": 4331, "amm": 4332, "\u0120normally": 4333, "omen": 4334, "\u0120pool": 4335, "\u0120trigg": 4336, "hetic": 4337, "\u0120Lit": 4338, "vere": 4339, "\u0120property": 4340, "ios": 4341, "cious": 4342, "\u0120Ge": 4343, "\u0120relevant": 4344, "LY": 4345, "\u0120WW": 4346, "\u0120twe": 4347, "\u0120bomb": 4348, "\u0120scale": 4349, "\u0120miles": 4350, "\u0120patch": 4351, "\u0120voted": 4352, "\u0120summ": 4353, "\u0120AC": 4354, "\u0120freed": 4355, "oop": 4356, "\u0120cares": 4357, "\u0120platform": 4358, "\u0120dying": 4359, "\u0120visit": 4360, "\u0120wide": 4361, "\u0120stress": 4362, "\u0120DO": 4363, "\u0120official": 4364, "\u0120manager": 4365, "\u0120topic": 4366, "\u0120passed": 4367, "\u0120abuse": 4368, "\u0120wast": 4369, "\u0120Cle": 4370, "\u0120playoff": 4371, "\u0120Cr": 4372, "\u0120Unfortunately": 4373, "\u0120thousands": 4374, "\u0120Cor": 4375, "\u0120Although": 4376, "men": 4377, "\u0120hopefully": 4378, "\u0120anx": 4379, "\u0120effic": 4380, "\u0120ded": 4381, "\u0120poke": 4382, "\u0120encoura": 4383, "\u0120fantastic": 4384, "boy": 4385, "xic": 4386, "gun": 4387, "\u0120Yep": 4388, "nger": 4389, "care": 4390, "\u0120device": 4391, "\u0120complex": 4392, "\u0120prison": 4393, "pir": 4394, "\u0120particularly": 4395, "\u0120voting": 4396, "\u0120center": 4397, "\u0120aside": 4398, "\u0120tons": 4399, "mao": 4400, "uments": 4401, "iant": 4402, "\u0120compare": 4403, "\u0120staff": 4404, "\u0120garbage": 4405, "\u0120origin": 4406, "\u0120equal": 4407, "\u0120frame": 4408, "rey": 4409, "\u0120AS": 4410, "\u0120clar": 4411, "\u0120Af": 4412, "aud": 4413, "\u0120loud": 4414, "host": 4415, "estern": 4416, "\u0120enemies": 4417, "\u0120held": 4418, "sequ": 4419, "\u0120six": 4420, "\u0120slowly": 4421, "\u0120intellig": 4422, "isf": 4423, "\u0120Hi": 4424, "izza": 4425, "\u0120Many": 4426, "\u0120obs": 4427, "\u0120Having": 4428, "US": 4429, "arded": 4430, "\u0120circle": 4431, "\u0120absolute": 4432, "\u0120South": 4433, "\u0120domin": 4434, "\u0120maintain": 4435, "\u0120Bern": 4436, "\u0120owner": 4437, "\u0120Didn": 4438, "\u0120concerned": 4439, "\u0120<": 4440, "\u0120false": 4441, "\u0120cow": 4442, "\u0120chest": 4443, "\u0120transfer": 4444, "\u0120breed": 4445, "\u0120spoil": 4446, "lin": 4447, "\u0120femin": 4448, "\u0120units": 4449, "usting": 4450, "\u0120butt": 4451, "\u0120helping": 4452, "\u0120drivers": 4453, "\u0120successful": 4454, "\u0120PM": 4455, "\u0120chicken": 4456, "\u0120lazy": 4457, "\u0120schools": 4458, "\u0120Hillary": 4459, "\u0120gri": 4460, "\u0120Part": 4461, "\u0120throwing": 4462, "\u0120church": 4463, "\u0120subs": 4464, "\u0120capt": 4465, "\u0120letting": 4466, "\u0120murder": 4467, "\u0120servers": 4468, "\u0120introduc": 4469, "\u0120Tex": 4470, "\u0120hilar": 4471, "\u0120customer": 4472, "\u0120unit": 4473, "\u0120accurate": 4474, "cul": 4475, "\u0120circum": 4476, "\u0120inn": 4477, "\u0120Another": 4478, "\u0120failed": 4479, "\u0120benefits": 4480, "\u0120hole": 4481, "\u0120fish": 4482, "\u0120teen": 4483, "isc": 4484, "\u0120auto": 4485, "soci": 4486, "\u0120Out": 4487, "\u0120everybody": 4488, "\u0120caused": 4489, "\u0120details": 4490, "\u0120metal": 4491, "\u0120becoming": 4492, "\u0120alt": 4493, "\u0120cancer": 4494, "irty": 4495, "\u0120isnt": 4496, "\u0120jack": 4497, "\u0120exec": 4498, "\u0120hospital": 4499, "agine": 4500, "\u0120van": 4501, "\u0120tonight": 4502, "\u0120complaining": 4503, "\u0120Nope": 4504, "\u0120anyways": 4505, "\u0120speech": 4506, "\u0120systems": 4507, "\u0120apolog": 4508, "\u0120White": 4509, "\u0120West": 4510, "\u0120matches": 4511, "\u0120growing": 4512, "rating": 4513, "pre": 4514, "fuck": 4515, "game": 4516, "\u0120Nah": 4517, "point": 4518, "da": 4519, "\u0120suit": 4520, "aches": 4521, "\u0120distance": 4522, "\u0120dress": 4523, "ressive": 4524, "epend": 4525, "\u0120allows": 4526, "\u0120designed": 4527, "\u0120reference": 4528, "\u0120NE": 4529, "\u0120Again": 4530, "\u0120Reg": 4531, "\u0120pieces": 4532, "\u0120athe": 4533, "\u0120features": 4534, "\u0120hook": 4535, "\u0120jail": 4536, "\u0120clothes": 4537, "\u0120partner": 4538, "\u0120managed": 4539, "\u0120lau": 4540, "cel": 4541, "\u0120reward": 4542, "ius": 4543, "\u0120economy": 4544, "IG": 4545, "ief": 4546, "ription": 4547, "acing": 4548, "\u0120cute": 4549, "ran": 4550, "\u0120Sky": 4551, "\u0120shock": 4552, "kward": 4553, "\u0120terror": 4554, "\u0120tro": 4555, "\u0120peace": 4556, "\u0120Facebook": 4557, "\u0120nation": 4558, "\u0120correctly": 4559, "\u0120adjust": 4560, "\u0120determ": 4561, "\u0120violence": 4562, "\u0120younger": 4563, "\u0120Mac": 4564, "AAAA": 4565, "\u0120Pres": 4566, "You": 4567, "oman": 4568, "hand": 4569, "\u0120checked": 4570, "\u0120flash": 4571, "\u0120owners": 4572, "exic": 4573, "\u0120situations": 4574, "\u0120Put": 4575, "\u0120grew": 4576, "???": 4577, "\u0120subst": 4578, "\u0120foreign": 4579, "\u0120NY": 4580, "udes": 4581, "\u0120Pol": 4582, "\u0120lady": 4583, "iling": 4584, "\u0120guard": 4585, "\u0120500": 4586, "force": 4587, "\u0120member": 4588, "reens": 4589, "\u0120Sand": 4590, "\u0120purchase": 4591, "\u0120hitting": 4592, "\u0120turning": 4593, "\u0120Hard": 4594, "\u0120crowd": 4595, "haha": 4596, "ager": 4597, "\u0120animal": 4598, "\u0120expecting": 4599, "orter": 4600, "\u0120friendly": 4601, "\u0120responsible": 4602, "alk": 4603, "\u0120AP": 4604, "\u0120aggress": 4605, "IR": 4606, "\u0120applic": 4607, "\u0120matters": 4608, "ously": 4609, "\u0120condition": 4610, "\u0120Chinese": 4611, "\u0120balls": 4612, "uild": 4613, "\u0120detail": 4614, "\u0120Us": 4615, "\u0120convin": 4616, "90": 4617, "bre": 4618, "\u0120Imagine": 4619, "\u0120nic": 4620, "\u0120significant": 4621, "\u0120network": 4622, "\u0120math": 4623, "outs": 4624, "\u0120intention": 4625, "\u0120bonus": 4626, "\u0120spir": 4627, "\u0120casual": 4628, "\u0120Think": 4629, "\u0120mir": 4630, "\u0120therap": 4631, "stood": 4632, "\u0120production": 4633, "ov": 4634, "inst": 4635, "\u0120United": 4636, "top": 4637, "\u0120saved": 4638, "\u0120highest": 4639, "\u0120meta": 4640, "\u0120settings": 4641, "\u0120rank": 4642, "\u0120dating": 4643, "\u0120Too": 4644, "dr": 4645, "uk": 4646, "\u0120hes": 4647, "erg": 4648, "\u0120challenge": 4649, "with": 4650, "LE": 4651, "\u0120favour": 4652, "\u0120raise": 4653, "\u0120tradition": 4654, "\u0120fired": 4655, "\u0120cup": 4656, "\u0120rub": 4657, "TH": 4658, "uf": 4659, "ils": 4660, "\u0120various": 4661, "\u0120Comm": 4662, "\u0120describ": 4663, "\u0120investig": 4664, "\u0120location": 4665, "\u0120busy": 4666, "\u0120chem": 4667, "\u0120Bra": 4668, "\u0120achieve": 4669, "iety": 4670, "\u0120exerc": 4671, "\u0120hated": 4672, "la": 4673, "\u0120sport": 4674, "\u0120Up": 4675, "\u0120faith": 4676, "\u0120Mexic": 4677, "RA": 4678, "\u0120entertain": 4679, "iliar": 4680, "OD": 4681, "ological": 4682, "\u0120Something": 4683, "sey": 4684, "\u0120teach": 4685, "\u0120cheese": 4686, "\u0120iron": 4687, "\u0120flav": 4688, "\u0120enjoyed": 4689, "\u0120stronger": 4690, "erate": 4691, "\u0120estab": 4692, "\u0120Fire": 4693, "\u0120QB": 4694, "GB": 4695, "\u0120CS": 4696, "atory": 4697, "inton": 4698, "\u0120suic": 4699, "\u0120explan": 4700, "\u0120advert": 4701, "this": 4702, "lig": 4703, "\u0120implement": 4704, "\u0120diet": 4705, "\u0120thus": 4706, "\u0120besides": 4707, "\u0120pump": 4708, "\u0120leaves": 4709, "\u0120Game": 4710, "\u0120tele": 4711, "ham": 4712, "\u0120millions": 4713, "\u0120NA": 4714, "icing": 4715, "\u0120ju": 4716, "\u0120spawn": 4717, "ads": 4718, "\u0120included": 4719, "\u012099": 4720, "\u0120photo": 4721, "\u0120employees": 4722, "\u0120Everything": 4723, "\u0120lying": 4724, "\u0120songs": 4725, "ights": 4726, "\u0120neither": 4727, "\u0120Lo": 4728, "hern": 4729, "\u0120hilarious": 4730, "attoo": 4731, "\u0120Obviously": 4732, "\u0120customers": 4733, "\u0120accom": 4734, "\u0120accounts": 4735, "\u0120drops": 4736, "vered": 4737, "\u0120wage": 4738, "\u0120relatively": 4739, "\u0120bug": 4740, "\u0120rain": 4741, "list": 4742, "orge": 4743, "--------": 4744, "\u0120Instead": 4745, "\u0120bathroom": 4746, "ivity": 4747, "\u0120motiv": 4748, "\u0120pock": 4749, "\u0120connection": 4750, "\u0120smoking": 4751, "icted": 4752, "\u0120decisions": 4753, "\u0120Dan": 4754, "amples": 4755, "\u0120debt": 4756, "agon": 4757, "\u0120Pat": 4758, "mission": 4759, "\u0120Fun": 4760, "lebr": 4761, "\u0120hide": 4762, "coin": 4763, "\u0120arrest": 4764, "zz": 4765, "IP": 4766, "\u0120tact": 4767, "\u0120awkward": 4768, "\u0120study": 4769, "\u0120tbh": 4770, "\u0120views": 4771, "\u0120Muslim": 4772, "xual": 4773, "\u0120Thats": 4774, "\u0120pushing": 4775, "\u0120SH": 4776, "EC": 4777, "\u0120associ": 4778, "\u0120wing": 4779, "\u0120truck": 4780, "priate": 4781, "\u0120Windows": 4782, "\u0120wealth": 4783, "\u0120freedom": 4784, "\u0120transl": 4785, "\u0120herself": 4786, "\u0120shown": 4787, "\u0120launch": 4788, "\u0120desk": 4789, "\u0120immig": 4790, "\u0120offensive": 4791, "\u0120helpful": 4792, "ums": 4793, "\u0120pregnant": 4794, "\u0120vill": 4795, "\u0120unfortunately": 4796, "\u0120goals": 4797, "\u0120Jack": 4798, "\u0120ID": 4799, "\u0120protest": 4800, "\u0120dump": 4801, "\u0120lapt": 4802, "aning": 4803, "500": 4804, "\u0120resist": 4805, "\u0120Had": 4806, "\u0120giant": 4807, "\u0120services": 4808, "gging": 4809, "\u0120boot": 4810, "ancy": 4811, "while": 4812, "\u0120loves": 4813, "\u0120THAT": 4814, "\u0120liberal": 4815, "\u0120Has": 4816, "\u0120hack": 4817, "\u0120politic": 4818, "\u0120bottle": 4819, "\u0120Kind": 4820, "arrass": 4821, "aded": 4822, "\u0120Ant": 4823, "\u0120addit": 4824, "16": 4825, "\u0120choices": 4826, "\u0120hol": 4827, "gly": 4828, "\u0120MS": 4829, "ashed": 4830, "\u0120definition": 4831, "\u0120according": 4832, "ilty": 4833, "\u0120comparison": 4834, "they": 4835, "\u0120exists": 4836, "\u0120opponent": 4837, "cellent": 4838, "illing": 4839, "\u0120upvot": 4840, "\u0120Rock": 4841, "icated": 4842, "\u0120received": 4843, "\u0120confir": 4844, "\u0120display": 4845, "\u0120approach": 4846, "\u0120google": 4847, "\u0120ME": 4848, "\u0120Val": 4849, "\u0120neighbor": 4850, "\u0120empty": 4851, "\u0120generation": 4852, "rig": 4853, "\u0120experienced": 4854, "\u0120mut": 4855, "\u0120arms": 4856, "round": 4857, "\u0120Yea": 4858, "\u0120rarely": 4859, "\u0120closed": 4860, "\u0120flying": 4861, "\u0120sac": 4862, "\u0120wed": 4863, "\u0120guessing": 4864, "\u0120na": 4865, "\u0120Time": 4866, "\u0120jokes": 4867, "\u0120eth": 4868, "\u0120lights": 4869, "\u0120Nobody": 4870, "\u0120Mo": 4871, "\u0120factor": 4872, "\u0120Bernie": 4873, "\u0120attitude": 4874, "endo": 4875, "\u0120treated": 4876, "\u0120punish": 4877, "\u0120seat": 4878, "fr": 4879, "\u0120interact": 4880, "ighter": 4881, "enses": 4882, "\u0120corrupt": 4883, "\u0120Gold": 4884, "\u0120Day": 4885, "\u0120proud": 4886, "\u0120Mor": 4887, "\u0120pit": 4888, "arma": 4889, "\u0120spam": 4890, "\u0120print": 4891, "\u0120defensive": 4892, "ek": 4893, "\u0120tournam": 4894, "\u0120setup": 4895, "\u0120wa": 4896, "\u0120crack": 4897, "\u0120corner": 4898, "ruction": 4899, "\u0120tast": 4900, "\u0120picking": 4901, "ban": 4902, "\u0120technically": 4903, "\u0120shape": 4904, "\u0120OF": 4905, "\u012021": 4906, "\u0120Germany": 4907, "CH": 4908, "\u0120hey": 4909, "\u0120Mag": 4910, "\u0120300": 4911, "\u0120puts": 4912, "\u0120sets": 4913, "\u0120scient": 4914, "\u0120embarrass": 4915, "\u0120tattoo": 4916, "\u0120bear": 4917, "\u0120Tell": 4918, "ortion": 4919, "urd": 4920, "\u0120irre": 4921, "\u0120shoes": 4922, "\u0120parties": 4923, "\u0120buddy": 4924, "\u0120USA": 4925, "\u0120listening": 4926, "\u0120named": 4927, "\u0120Second": 4928, "\u0120Australia": 4929, "\u0120flaw": 4930, "\u0120anybody": 4931, "\u0120Ben": 4932, "she": 4933, "\u0120maps": 4934, "\u0120Stop": 4935, "\u0120throughout": 4936, "\u00f0\u0141\u013a": 4937, "ara": 4938, "\u0120conservative": 4939, "\u0120pref": 4940, "\u0120Met": 4941, "eck": 4942, "\u0120scenario": 4943, "\u0120station": 4944, "\u0120Two": 4945, "izes": 4946, "tt": 4947, "\u0120Hit": 4948, "\u0120competition": 4949, "\u0120heroes": 4950, "\u0120tips": 4951, "\u0120struct": 4952, "\u0120leader": 4953, "\u0120keys": 4954, "\u0120pizza": 4955, "LLY": 4956, "\u0120Perhaps": 4957, "\u0120phones": 4958, "ption": 4959, "\u0120Bre": 4960, "\u0120satisf": 4961, "\u0120fights": 4962, "\u0120suspect": 4963, "\u0120heads": 4964, "\u0120dollar": 4965, "\u0120opening": 4966, "\u0120chances": 4967, "roc": 4968, "\u0120technology": 4969, "\u0120Japanese": 4970, "\u0120Definitely": 4971, "\u0120ALL": 4972, "\u0120combo": 4973, "\u0120clim": 4974, "\u0120reve": 4975, "\u0120TL": 4976, "\u0120covered": 4977, "\u0120tree": 4978, "DS": 4979, "inter": 4980, "\u0120status": 4981, "\u0120scary": 4982, "\u0120taught": 4983, "\u0120Call": 4984, "\u0120adop": 4985, "\u0120filled": 4986, "actly": 4987, "\u0120Clinton": 4988, "\u0120TS": 4989, "\u0120mobile": 4990, "\u0120workers": 4991, "\u0120attractive": 4992, "\u0120East": 4993, "\u0120instance": 4994, "\u0120meme": 4995, "\u0120Apparently": 4996, "\u0120coach": 4997, "\u0120finan": 4998, "\u0120depart": 4999, "\u0120legs": 5000, "\u0120hundreds": 5001, "\u0120celebr": 5002, "\u0120\\": 5003, "\u0120sky": 5004, "\u0120DLC": 5005, "\u0120strategy": 5006, "gged": 5007, "\u0120neck": 5008, "\u0120walked": 5009, "ique": 5010, "ential": 5011, "\u0120promot": 5012, "\u0120optim": 5013, "\u0120dealing": 5014, "\u0120Mad": 5015, "\u0120bringing": 5016, "\u0120disappointed": 5017, "\u0120plans": 5018, "\u0120Amazon": 5019, "ros": 5020, "FC": 5021, "\u0120spin": 5022, "MA": 5023, "\u0120steam": 5024, "\u0120Cont": 5025, "\u0120primary": 5026, "\u0120DC": 5027, "\u0120genuinely": 5028, "\u0120iPh": 5029, "iable": 5030, "\u0120Xbox": 5031, "\u0120Poke": 5032, "\u0120Par": 5033, "\u0120root": 5034, "\u0120hadn": 5035, "\u0120survive": 5036, "\u0120surprise": 5037, "\u0120section": 5038, "\u0120Ry": 5039, "\u0120pha": 5040, "hold": 5041, "ength": 5042, "\u0120Hmm": 5043, "\u0120Christmas": 5044, "\u0120rat": 5045, "\u0120edge": 5046, "\u0120grade": 5047, "\u0120dinner": 5048, "\u0120Interest": 5049, "\u0120Jew": 5050, "\u0120del": 5051, "\u0120arri": 5052, "\u0120milk": 5053, "olic": 5054, "\u0120gradu": 5055, "\u0120BB": 5056, "\u0120demon": 5057, "\u0120Remember": 5058, "iance": 5059, "\u0120complic": 5060, "\u0120Shit": 5061, "\u0120debate": 5062, "\u0120tight": 5063, "bert": 5064, "\u0120Though": 5065, "\u0120shar": 5066, "\u0120command": 5067, "14": 5068, "\u0120tall": 5069, "\u0120contain": 5070, "\u0120capable": 5071, "\u0120neut": 5072, "\u0120murd": 5073, "\u0120former": 5074, "\u0120innoc": 5075, "\u0120anxiety": 5076, "\u0120High": 5077, "\u0120jour": 5078, "\u0120billion": 5079, "don": 5080, "\u0120sake": 5081, "aven": 5082, "iots": 5083, "\u0120incredible": 5084, "acement": 5085, "\u0120admin": 5086, "vl": 5087, "\u0120Rob": 5088, "\u0120Texas": 5089, "IM": 5090, "\u0120stom": 5091, "\u0120management": 5092, "va": 5093, "\u0120YouT": 5094, "\u0120equip": 5095, "*,": 5096, "\u0120Po": 5097, "iforn": 5098, "\u0120channel": 5099, "\u0120mission": 5100, "\u0120rif": 5101, "ket": 5102, "\u0120Res": 5103, "\u0120independ": 5104, "\u0120abilities": 5105, "\u0120therefore": 5106, "\u0120Bo": 5107, "It": 5108, "rael": 5109, "\u0120guilty": 5110, "pha": 5111, "\u0120paint": 5112, "oned": 5113, "lix": 5114, "\u0120extreme": 5115, "\u0120quiet": 5116, "icate": 5117, "\u0120mechanics": 5118, "\u0120typically": 5119, "\u0120cycle": 5120, "\u0120monster": 5121, "\u0120expans": 5122, "uted": 5123, "\u0120boys": 5124, "\u0120anime": 5125, "\u0120vast": 5126, "\u0120Earth": 5127, "soft": 5128, "\u0120facts": 5129, "\u0120treatment": 5130, "ties": 5131, "\u0120army": 5132, "\u0120wow": 5133, "____": 5134, "\u0120invent": 5135, "\u0120ing": 5136, "ashing": 5137, "bow": 5138, "\u0120lawy": 5139, "Th": 5140, "\u0120Des": 5141, "\u0120heavily": 5142, "\u0120constant": 5143, "\u0120reven": 5144, "\u0120citizens": 5145, "\u0120\u00c2": 5146, "\u0120assist": 5147, "\u0120cities": 5148, "\u0120chain": 5149, "\u0120Anyway": 5150, "\u0120Tur": 5151, "\u0120pin": 5152, "\u0120ge": 5153, "\u0120atm": 5154, "wood": 5155, "ILL": 5156, "\u0120depend": 5157, "ja": 5158, "rat": 5159, "\u0120OS": 5160, "\u0120wit": 5161, "\u0120racism": 5162, "\u0120emotional": 5163, "\u0120wake": 5164, "\u0120warm": 5165, "inate": 5166, "St": 5167, "\u0120consequ": 5168, "\u012022": 5169, "airs": 5170, "intendo": 5171, "\u0120seasons": 5172, "\u0120windows": 5173, "upp": 5174, "\u0120sharing": 5175, "](": 5176, "\u0120Wo": 5177, "\u0120assault": 5178, "\u0120vir": 5179, "\u0120greatest": 5180, "\u0120unlock": 5181, "umps": 5182, "\u0120ens": 5183, "\u0120familiar": 5184, "EM": 5185, "alty": 5186, "\u0120stores": 5187, "\u0120mate": 5188, "\u0120chose": 5189, "\u0120loot": 5190, "\u0120explanation": 5191, "pes": 5192, "\u0120Tor": 5193, "idden": 5194, "\u0120episodes": 5195, "\u0120potentially": 5196, "mark": 5197, "TF": 5198, "\u0120NFL": 5199, "\u0120locked": 5200, "\u0120controller": 5201, "hered": 5202, "\u0120City": 5203, "\u0120breaks": 5204, "\u0120Mod": 5205, "\u0120welcome": 5206, "\u0120enter": 5207, "\u0120Ed": 5208, "\u0120usual": 5209, "\u0120recall": 5210, "\u0120champions": 5211, "\u0120king": 5212, "\u0120Canadian": 5213, "even": 5214, "abs": 5215, "\u0120dies": 5216, "\u012045": 5217, "new": 5218, "\u0120shirt": 5219, "anda": 5220, "\u0120poll": 5221, "\u0120Dec": 5222, "\u0120je": 5223, "iam": 5224, "aying": 5225, "\u0120basis": 5226, "\u0120disp": 5227, "\u0120stated": 5228, "\u0120vehicle": 5229, "\u012035": 5230, "\u0120sentence": 5231, "illed": 5232, "\u0120cate": 5233, "antic": 5234, "\u0120supply": 5235, "\u0120rates": 5236, "\u0120San": 5237, "\u0120Mid": 5238, "\u0120NO": 5239, "\u0120meeting": 5240, "\u0120financial": 5241, "\u0120shift": 5242, "asm": 5243, "\u0120dislike": 5244, "ounced": 5245, "\u0120broad": 5246, "\u0120reflect": 5247, "egr": 5248, "\u0120Pet": 5249, "AD": 5250, "\u0120Ma": 5251, "ept": 5252, "\u0120trigger": 5253, "\u0120terr": 5254, "\u0120candidate": 5255, "\u0120raised": 5256, "\u01201000": 5257, "\u0120document": 5258, "otic": 5259, "\u0120Sad": 5260, "\u0120mac": 5261, "\u0120fro": 5262, "\u0120web": 5263, "ufact": 5264, "\u0120pulling": 5265, "vin": 5266, "\u0120flow": 5267, "\u0120Med": 5268, "\u0120fool": 5269, "\u0120Op": 5270, "\u0120subsc": 5271, "\u0120pants": 5272, "gu": 5273, "\u0120refere": 5274, "\u0120State": 5275, "inated": 5276, "\u0120bac": 5277, "\u0120hon": 5278, "\u0120gif": 5279, "\u0120plastic": 5280, "\u0120understood": 5281, "\u0120followed": 5282, "\u0120Pv": 5283, "orters": 5284, "\u0120mana": 5285, "\u0120claims": 5286, "bar": 5287, "\u0120Tit": 5288, "ares": 5289, "ato": 5290, "\u0120zone": 5291, "\u0120Exactly": 5292, "\u0120ES": 5293, "bel": 5294, "\u0120deserves": 5295, "\u0120additional": 5296, "ifornia": 5297, "nes": 5298, "\u0120Check": 5299, "\u0120hung": 5300, "\u0120Wars": 5301, "yy": 5302, "range": 5303, "\u0120occur": 5304, "inge": 5305, "inct": 5306, "\u0120appeal": 5307, "dra": 5308, "\u0120lately": 5309, "\u0120receive": 5310, "\u0120EVER": 5311, "\u0120cos": 5312, "\u0120crying": 5313, "Don": 5314, "\u0120creating": 5315, "\u0120stack": 5316, "\u0120tickets": 5317, "\u0120personality": 5318, "\u0120League": 5319, "\u0120gam": 5320, "itar": 5321, "bur": 5322, "\u0120belong": 5323, "\u0120narr": 5324, "\u0120LA": 5325, "\u0120script": 5326, "\u0120arc": 5327, "kn": 5328, "\u0120Pal": 5329, "\u0120decks": 5330, "\u0120opposed": 5331, "\u0120reveal": 5332, "\u0120Otherwise": 5333, "rast": 5334, "\u0120standards": 5335, "\u0120answers": 5336, "\u0120wheel": 5337, "\u0120testing": 5338, "\u0120hardware": 5339, "lear": 5340, "\u0120Might": 5341, "\u0120trump": 5342, "\u0120nur": 5343, "\u0120lunch": 5344, "\u0120refuse": 5345, "\u0120YouTube": 5346, "\u0120pic": 5347, "\u0120tor": 5348, "\u0120led": 5349, "\u0120Give": 5350, "\u0120Sl": 5351, "\u0120destroyed": 5352, "\u0120toxic": 5353, "\u0120salt": 5354, "\u0120route": 5355, "ements": 5356, "ida": 5357, "\u0120automatically": 5358, "\u0120ugly": 5359, "\u0120checking": 5360, "ogue": 5361, "\u0120Russian": 5362, "ivers": 5363, "\u0120thin": 5364, "\u0120offered": 5365, "\u0120dy": 5366, "ada": 5367, "\u0120regularly": 5368, "\u0120Je": 5369, "\u0120photos": 5370, "\u0120swear": 5371, "\u0120votes": 5372, "ulate": 5373, "\u0120perman": 5374, "\u0120accompl": 5375, "mates": 5376, "13": 5377, "\u0120cutting": 5378, "hem": 5379, ".*": 5380, "\u0120intended": 5381, "\u0120indeed": 5382, "\u0120picks": 5383, "\u0120depression": 5384, "\u0120jun": 5385, "\u0120hype": 5386, "oty": 5387, "\u0120bench": 5388, "\u0120opened": 5389, "\u0120trading": 5390, "\u0120Afric": 5391, "\u0120input": 5392, "\u0120owned": 5393, "ilos": 5394, "\u0120tv": 5395, "\u0120Dav": 5396, "\u0120signed": 5397, "\u0120medic": 5398, "\u0120wise": 5399, "\u0120audience": 5400, "orrect": 5401, "\u0120experiences": 5402, "\u0120PR": 5403, "\u0120Air": 5404, "flix": 5405, "ugs": 5406, "\u0120drag": 5407, "\u0120cable": 5408, "\u0120plane": 5409, "\u0120replaced": 5410, "\u0120cam": 5411, "\u0120laptop": 5412, "\u0120leaders": 5413, "\u0120Dragon": 5414, "\u0120tanks": 5415, "\u0120ordered": 5416, "TS": 5417, "\u0120Leg": 5418, "\u0120Sn": 5419, "\u0120apartment": 5420, "\u0120confl": 5421, "\u0120nowhere": 5422, "\u0120incom": 5423, "\u0120IP": 5424, "\u0120Step": 5425, "core": 5426, "\u0120iPhone": 5427, "\u0120south": 5428, "\u0120liqu": 5429, "\u0120referring": 5430, "\u0120President": 5431, "\u0120uncom": 5432, "\u0120Spe": 5433, "\u0120shipping": 5434, "\u0120severe": 5435, "hant": 5436, "\u0120addition": 5437, "\u0120Rec": 5438, "\u0120passing": 5439, "phone": 5440, "\u0120cream": 5441, "\u0120Wel": 5442, "\u0120bird": 5443, "\u0120Source": 5444, "\u0120restaurant": 5445, "\u0120staying": 5446, "\u0120British": 5447, "\u0120desper": 5448, "\u0120kinds": 5449, "\u0120length": 5450, "\u0120brown": 5451, "\u0120CC": 5452, "\u0120viable": 5453, "\u0120nut": 5454, "\u0120tools": 5455, "\u0120tries": 5456, "\u0120Real": 5457, "\u0120excellent": 5458, "\u0120hob": 5459, "rier": 5460, "\u0120format": 5461, "\u0120Read": 5462, "\u0120dirty": 5463, "\u0120everyday": 5464, "32": 5465, "\u0120expert": 5466, "\u0120bucks": 5467, "\u0120differently": 5468, "\u0120causing": 5469, "\u0120ps": 5470, "\u0120decl": 5471, "\u0120electric": 5472, "\u0120Pokemon": 5473, "\u0120finger": 5474, "layer": 5475, "\u0120fuel": 5476, "\u0120gift": 5477, "ocol": 5478, "\u0120responsibility": 5479, "itut": 5480, "\u0120injury": 5481, "ille": 5482, "TC": 5483, "\u0120categ": 5484, "bb": 5485, "\u0120Tra": 5486, "\u0120manufact": 5487, "\u0120Turn": 5488, "\u0120Ev": 5489, "\u0120nu": 5490, "\u0120dod": 5491, "olf": 5492, "dom": 5493, "\u0120schedule": 5494, "eline": 5495, "\u0120SC": 5496, "\u0120letter": 5497, ".\u00e2\u0122\u013f": 5498, "\u0120downvote": 5499, "\u0120Fall": 5500, "\u0120Mr": 5501, "\u0120Sam": 5502, "\u0120emer": 5503, "craft": 5504, "\u0120True": 5505, "\u0120tun": 5506, "\u0120border": 5507, "\u0120regret": 5508, "\u0120cheating": 5509, "\u0120pretend": 5510, "\u0120superior": 5511, "\u0120REA": 5512, "iate": 5513, "\u0120weather": 5514, "nec": 5515, "\u0120lmao": 5516, "\u0120PL": 5517, "\u0120mainly": 5518, "\u0120DM": 5519, "\u0120Back": 5520, "lly": 5521, "\u0120Yup": 5522, "\u0120Israel": 5523, "watch": 5524, "\u0120beta": 5525, "\u0120amer": 5526, "\u0120rude": 5527, "\u0120rating": 5528, "\u0120squad": 5529, "des": 5530, "\u0120reject": 5531, "eds": 5532, "\u0120yout": 5533, "\u0120Tom": 5534, "\u0120Before": 5535, "\u0120causes": 5536, "zer": 5537, "\u0120Paul": 5538, "\u0120surprising": 5539, "enc": 5540, "FA": 5541, "\u0120apps": 5542, "PG": 5543, "\u0120possibility": 5544, "\u0120sword": 5545, "\u0120east": 5546, "ishes": 5547, "avy": 5548, "\u0120Pe": 5549, "\u0120row": 5550, "\u0120Use": 5551, "\u0120Tot": 5552, "\u0120default": 5553, "\u0120ske": 5554, "\u0120screens": 5555, "\u0120struggle": 5556, "cons": 5557, "\u0120confirmed": 5558, "hard": 5559, "\u0120French": 5560, "\u0120rom": 5561, "hers": 5562, "\u0120calories": 5563, "\u0120element": 5564, "abor": 5565, "pm": 5566, "\u0120nuts": 5567, "\u0120Jim": 5568, "\u0120Thing": 5569, "\u0120Bel": 5570, "\u0120boat": 5571, "word": 5572, "wing": 5573, "\u0120Ter": 5574, "\u0120produce": 5575, "\u0120influence": 5576, "%.": 5577, "\u0120client": 5578, "\u0120manip": 5579, "\u0120suicide": 5580, "\u0120equival": 5581, "\u0120Sil": 5582, "\u0120histor": 5583, "\u0120surround": 5584, "\u0120spr": 5585, "\u0120supporting": 5586, "\u0120Naz": 5587, "\u0120justify": 5588, "ki": 5589, "\u0120sen": 5590, "\u0120tap": 5591, "\u0120dise": 5592, "\u0120Jon": 5593, "ady": 5594, "\u0120eggs": 5595, "\u0120California": 5596, "\u0120consistent": 5597, "\u0120dial": 5598, "whel": 5599, "\u0120Fucking": 5600, "\u0120soul": 5601, "\u0120winter": 5602, "ho": 5603, "\u0120Start": 5604, "\u0120insult": 5605, "\u0120Nintendo": 5606, "\u0120badly": 5607, "\u0120ruin": 5608, "\u0120careful": 5609, "\u0120convinced": 5610, "\u0120Come": 5611, "\u0120alot": 5612, "\u0120whose": 5613, "lands": 5614, "\u0120instantly": 5615, "\u0120particip": 5616, "\u0120mistakes": 5617, "\u0120Steam": 5618, "\u0120AR": 5619, "\u01202016": 5620, "\u0120btw": 5621, "\u0120retarded": 5622, "\u0120!": 5623, "iped": 5624, "HH": 5625, "\u0120depth": 5626, "ado": 5627, "utch": 5628, "overed": 5629, "\u0120classic": 5630, "\u0120expand": 5631, "OOOO": 5632, "\u0120noise": 5633, "\u0120Next": 5634, "\u0120physically": 5635, "\u0120condit": 5636, "\u0120shall": 5637, "\u0120hardly": 5638, "\u0120ath": 5639, "\u0120plant": 5640, "uming": 5641, "\u0120sacr": 5642, "ressing": 5643, "igs": 5644, "\u0120surger": 5645, "\u0120Tim": 5646, "\u0120dragon": 5647, "\u0120House": 5648, "\u0120fellow": 5649, "\u0120lan": 5650, "\u0120der": 5651, "\u0120threads": 5652, "str": 5653, "\u0120downvotes": 5654, "urb": 5655, "\u0120Green": 5656, "\u0120cock": 5657, "ona": 5658, "chen": 5659, "\u0120fold": 5660, "\u0120powers": 5661, "ulk": 5662, "\u0120playoffs": 5663, "\u0120AI": 5664, "\u0120horse": 5665, "ula": 5666, "fit": 5667, "18": 5668, "\u0120sch": 5669, "\u0120quote": 5670, "part": 5671, "\u0120rum": 5672, "\u0120Em": 5673, "\u0120ignorant": 5674, "\u0120fort": 5675, "cend": 5676, "\u0120assumed": 5677, "\u0120mal": 5678, "\u0120shower": 5679, "\u0120Sol": 5680, "\u0120LOL": 5681, "net": 5682, "\u0120Islam": 5683, "\u0120motor": 5684, "\u0120listed": 5685, "\u0120HP": 5686, "\u0120proven": 5687, "\u0120ranked": 5688, "\u0120disgusting": 5689, "\u0120sne": 5690, "\u0120pokemon": 5691, "lished": 5692, "\u0120bright": 5693, "has": 5694, "\u0120license": 5695, "\u0120brings": 5696, "uclear": 5697, "\u0120describe": 5698, "\u0120exchange": 5699, "\u0120Idk": 5700, "\u0120CPU": 5701, "\u0120Abs": 5702, "\u0120micro": 5703, "\u0120criminal": 5704, "\u0120franch": 5705, "\u0120employee": 5706, "\u0120leads": 5707, "cient": 5708, "\u0120mouse": 5709, "\u0120trend": 5710, "ception": 5711, "\u0120Intern": 5712, "\u0120sugar": 5713, "rage": 5714, "\u0120toler": 5715, "\u0120frustrating": 5716, "\u0120Republicans": 5717, "\u0120entit": 5718, "\u0120justice": 5719, "\u0120stands": 5720, "\u0120ships": 5721, "\u0120republic": 5722, "\u0120HD": 5723, "\u0120cats": 5724, "itution": 5725, "\u0120parking": 5726, "\u0120relationships": 5727, "\u0120idiots": 5728, "esh": 5729, "inder": 5730, "\u0120assholes": 5731, "FF": 5732, "\u0120univers": 5733, "\u0120pod": 5734, "\u0120consistently": 5735, "\u0120fantasy": 5736, "\u0120SP": 5737, "\u0120equipment": 5738, "\u0120examples": 5739, "\u0120libr": 5740, "orce": 5741, "\u0120conclus": 5742, "ours": 5743, "\u0120hall": 5744, "\u0120federal": 5745, "\u0120region": 5746, "\u0120rush": 5747, "\u0120flight": 5748, "\u0120profile": 5749, "\u0120birthday": 5750, "agger": 5751, "\u0120sites": 5752, "rome": 5753, "\u0120bod": 5754, "\u0120confident": 5755, "\u0120pc": 5756, "\u0120hire": 5757, "who": 5758, "\u0120zomb": 5759, "\u0120THIS": 5760, "olve": 5761, "\u0120pushed": 5762, "\u0120graphics": 5763, "\u0120existence": 5764, "\u0120beliefs": 5765, "\u0120Ult": 5766, "\u0120DS": 5767, "\u0120pil": 5768, "\u0120wonderful": 5769, "\u0120Hy": 5770, "\u0120label": 5771, "\u0120pill": 5772, "\u0120knife": 5773, "\u0120innocent": 5774, "\u0120developed": 5775, "\u0120pattern": 5776, "\u0120alternative": 5777, "\u0120intent": 5778, "\u0120collection": 5779, "\u0120threw": 5780, "\u0120appropriate": 5781, "\u0120feedback": 5782, "\u0120Sur": 5783, "ago": 5784, "\u0120impressive": 5785, "\u0120thrown": 5786, "\u0120economic": 5787, "\u0120prec": 5788, "fire": 5789, "\u0120Iron": 5790, "\u0120values": 5791, "\u0120mixed": 5792, "\u0120defe": 5793, "\u0120holy": 5794, "\u0120Port": 5795, "erk": 5796, "IV": 5797, "\u0120fee": 5798, "\u0120mail": 5799, "ester": 5800, "\u0120west": 5801, "angers": 5802, "\u0120Sk": 5803, "\u0120teaching": 5804, "uable": 5805, "\u0120Sub": 5806, "inity": 5807, "\u0120ain": 5808, "ests": 5809, "ram": 5810, "\u0120appears": 5811, "\u0120decade": 5812, "\u0120athlet": 5813, "\u0120calcul": 5814, "',": 5815, "uary": 5816, "olt": 5817, "\u0120meal": 5818, "\u0120solve": 5819, "!)": 5820, "\u0120lag": 5821, "\u0120explained": 5822, "\u0120uncomfortable": 5823, "\u0120regarding": 5824, "\u0120mort": 5825, "\u0120initial": 5826, "onn": 5827, "\u0120\u00e2": 5828, "opp": 5829, "\u0120pocket": 5830, "\u0120increased": 5831, "\u0120CL": 5832, "\u0120advance": 5833, "\u0120goo": 5834, "uries": 5835, "\u0120acce": 5836, "\u0120models": 5837, "\u0120Bit": 5838, "\u0120decades": 5839, "\u0120FB": 5840, "\u0120fasc": 5841, "\u0120kicked": 5842, "\u0120\u00c2\u00a3": 5843, "\u0120university": 5844, "75": 5845, "\u0120Sou": 5846, "\u0120legitimate": 5847, "\u0120karma": 5848, "tain": 5849, "\u0120Life": 5850, "\u0120integr": 5851, "\u0120guarantee": 5852, "\u0120restrict": 5853, "\u0120programs": 5854, "\u0120ic": 5855, "\u0120commer": 5856, ")?": 5857, "\u0120England": 5858, "iper": 5859, "inary": 5860, "\u0120loose": 5861, "\u0120volume": 5862, "\u0120silver": 5863, "\u0120Interesting": 5864, "\u0120States": 5865, "\u0120pal": 5866, "\u0120stere": 5867, "\u0120alright": 5868, "\u0120Micro": 5869, "mart": 5870, "\u0120crew": 5871, "\u0120files": 5872, "aaaa": 5873, "\u0120conditions": 5874, "\u0120hates": 5875, "\u0120dunno": 5876, "\u0120bound": 5877, "\u0120sear": 5878, "\u0120reduce": 5879, "\u0120pra": 5880, "\u0120colors": 5881, "\u0120gross": 5882, "vest": 5883, "\u0120failure": 5884, "izzard": 5885, "\u0120package": 5886, "\u0120laun": 5887, "\u0120wedding": 5888, "\u0120AL": 5889, "\u0120falling": 5890, "hael": 5891, "\u0120wire": 5892, "\u0120spect": 5893, "\u0120focused": 5894, "\u0120dip": 5895, "\u0120monitor": 5896, "uty": 5897, "\u0120officer": 5898, "vey": 5899, "uzz": 5900, "35": 5901, "\u0120Light": 5902, "uman": 5903, "athy": 5904, "\u0120unlikely": 5905, "\u0120serve": 5906, "\u0120error": 5907, "\u0120Dead": 5908, "iders": 5909, "\u0120beating": 5910, "\u0120packs": 5911, "ba": 5912, "In": 5913, "\u0120smooth": 5914, "EEEE": 5915, "\u0120Luck": 5916, "\u0120supporters": 5917, "\u0120stun": 5918, "\u0120ML": 5919, "\u0120virt": 5920, "\u0120healthcare": 5921, "\u0120bored": 5922, "\u0120spirit": 5923, "base": 5924, "\u0120greater": 5925, "\u0120effectively": 5926, "\u0120Down": 5927, "good": 5928, "\u0120Brown": 5929, "\u0120laug": 5930, "mber": 5931, "rior": 5932, "\u0120wrest": 5933, "\u0120thick": 5934, "iber": 5935, "\u0120comed": 5936, "\u0120hanging": 5937, "\u0120updates": 5938, "\u0120butter": 5939, "ander": 5940, "\u0120chap": 5941, "\u0120minority": 5942, "\u0120Luc": 5943, "\u0120Happ": 5944, "house": 5945, "\u0120Android": 5946, "ene": 5947, "\u0120dat": 5948, "may": 5949, "\u0120passive": 5950, "\u0120Bill": 5951, "\u0120healing": 5952, "\u0120ram": 5953, "\u0120stars": 5954, "\u0120teeth": 5955, "\u0120godd": 5956, "pop": 5957, "\u0120actively": 5958, "\u0120plate": 5959, "\u0120poorly": 5960, "\u0120contr": 5961, "\u0120Mal": 5962, "ulated": 5963, "\u0120hurts": 5964, "\u0120significantly": 5965, "\u0120radio": 5966, "\u0120keyboard": 5967, "\u0120comfort": 5968, "aken": 5969, "ww": 5970, "ints": 5971, "\u0120delay": 5972, "\u0120brows": 5973, "Oh": 5974, "\u0120sole": 5975, "necess": 5976, "RS": 5977, "\u0120sending": 5978, "\u0120basket": 5979, "\u0120ast": 5980, "\u0120warning": 5981, "\u0120punch": 5982, "\u0120circumst": 5983, "\u0120Dest": 5984, "\u0120ack": 5985, "\u0120MO": 5986, "\u0120exercise": 5987, "\u0120aggressive": 5988, "\u0120wet": 5989, "see": 5990, "\u0120cig": 5991, "ora": 5992, "\u0120reviews": 5993, "\u0120Comp": 5994, "\u0120typical": 5995, "\u0120clue": 5996, "ria": 5997, "\u0120flip": 5998, "\u0120yellow": 5999, "\u0120sequ": 6000, "\u0120accepted": 6001, "ocking": 6002, "\u0120bars": 6003, "\u0120Acc": 6004, "\u0120violent": 6005, "\u0120nons": 6006, "\u0120Battle": 6007, "\u0120Friday": 6008, "\u0120diss": 6009, "stal": 6010, "ilies": 6011, "\u0120leading": 6012, "If": 6013, "\u0120Sun": 6014, "NG": 6015, "\u0120twist": 6016, "stone": 6017, "\u0120)": 6018, "\u0120mini": 6019, "\u0120equivalent": 6020, "\u0120dropping": 6021, "\u0120audio": 6022, "\u0120conven": 6023, "lers": 6024, "geon": 6025, "herent": 6026, "\u0120hip": 6027, "\u0120expansion": 6028, "\u0120storm": 6029, "abled": 6030, "\u0120marketing": 6031, "\u0120bugs": 6032, "\u0120prob": 6033, "\u0120moral": 6034, "\u0120Sund": 6035, "\u0120acknow": 6036, "\u0120artist": 6037, "\u0120craft": 6038, "\u0120Mark": 6039, "run": 6040, "asty": 6041, "\u0120signs": 6042, "\u0120phr": 6043, "VP": 6044, "\u0120moments": 6045, "elling": 6046, "\u0120sees": 6047, "uge": 6048, "\u0120Republican": 6049, "\u0120sin": 6050, "vis": 6051, "levant": 6052, "\u0120Bad": 6053, "\u0120protection": 6054, "ashion": 6055, "\u0120->": 6056, "\u0120investment": 6057, "\u0120toile": 6058, "\u0120wave": 6059, "\u0120Usually": 6060, "\u0120tea": 6061, "\u0120temper": 6062, "\u0120predict": 6063, "eless": 6064, "\u0120Better": 6065, "\u0120Frank": 6066, "\u0120idk": 6067, "incip": 6068, "rog": 6069, "\u012075": 6070, "\u0120manual": 6071, "\u0120charges": 6072, "\u0120growth": 6073, "\u0120flu": 6074, "ulting": 6075, "\u0120fet": 6076, "\u0120crash": 6077, "\u0120gar": 6078, "\u0120convince": 6079, "post": 6080, "\u0120stops": 6081, "\u0120escape": 6082, "\u0120Death": 6083, "\u0120IV": 6084, "\u0120douche": 6085, "\u0120adds": 6086, "\u0120moon": 6087, "\u0120SU": 6088, "\u0120Bay": 6089, "uster": 6090, "\u0120prime": 6091, "\u0120blast": 6092, "star": 6093, "\u0120fits": 6094, "\u0120reset": 6095, "\u0120steps": 6096, "\u0120dim": 6097, "\u0120sleeping": 6098, "\u0120suggestions": 6099, "\u0120allowing": 6100, "\u0120strike": 6101, "idents": 6102, "rely": 6103, "\u0120salary": 6104, "........": 6105, "win": 6106, "\u0120nose": 6107, "AP": 6108, "\u0120GM": 6109, "\u0120delic": 6110, "essed": 6111, "\u0120Awesome": 6112, "\u0120criticism": 6113, "\u0120Always": 6114, "\u0120cab": 6115, "\u0120Mer": 6116, "\u0120Cool": 6117, "\u0120drama": 6118, "\u0120firm": 6119, "\u0120attacking": 6120, "\u0120penis": 6121, "fe": 6122, "\u0120DN": 6123, "\u0120lvl": 6124, "\u0120surgery": 6125, "\u0120pointed": 6126, "\u0120creepy": 6127, "\u0120ideal": 6128, "\u0120harass": 6129, "\u0120Ac": 6130, "\u0120arguments": 6131, "oses": 6132, "akers": 6133, "\u0120absurd": 6134, "ounter": 6135, "ded": 6136, "non": 6137, "\u0120philos": 6138, "weight": 6139, "\u0120Ill": 6140, "\u0120cake": 6141, "\u0120Cent": 6142, "\u0120acceptable": 6143, "\u0120@": 6144, "\u0120Off": 6145, "\u0120grown": 6146, "\u0120positions": 6147, "\u0120stab": 6148, "\u0120pa": 6149, "\u0120measure": 6150, "fast": 6151, "\u0120batt": 6152, "pass": 6153, "\u0120forces": 6154, "\u0120pointing": 6155, "\u012031": 6156, "\u0120_": 6157, "rie": 6158, "\u0120surface": 6159, "\u0120complicated": 6160, "\u0120cheat": 6161, "\u0120belief": 6162, "\u0120Hun": 6163, "\u0120plain": 6164, "reet": 6165, "resh": 6166, "\u0120department": 6167, "\u0120charged": 6168, "anta": 6169, "KE": 6170, "\u0120efficient": 6171, "iculty": 6172, "\u0120melee": 6173, "\u0120stone": 6174, ":**": 6175, "\u0120repeat": 6176, "\u0120Park": 6177, "\u0120amb": 6178, "\u0120favourite": 6179, "\u0120veget": 6180, "\u0120amounts": 6181, "\u0120Wouldn": 6182, "\u0120youtube": 6183, "\u0120WR": 6184, "\u0120Mart": 6185, "\u0120balanced": 6186, "sen": 6187, "\u0120plug": 6188, "cles": 6189, "\u0120fingers": 6190, "\u0120drives": 6191, "\u0120bread": 6192, "anish": 6193, "\u0120maxim": 6194, "\u0120families": 6195, "\u012023": 6196, "uding": 6197, "kers": 6198, "\u0120Mat": 6199, "ita": 6200, "yl": 6201, "\u0120Anything": 6202, "\u0120international": 6203, "rough": 6204, "\u0120critical": 6205, "\u0120deals": 6206, "\u0120offers": 6207, "\u0120Cap": 6208, "some": 6209, "\u0120York": 6210, "acle": 6211, "\u0120calm": 6212, "\u0120BE": 6213, "\u0120originally": 6214, "\u0120laughing": 6215, "\u0120identity": 6216, "\u0120Blue": 6217, "bi": 6218, "\u012026": 6219, "\u0120percentage": 6220, "\u0120Absolut": 6221, "ribly": 6222, "onic": 6223, "ushed": 6224, "ealous": 6225, "\u0120dudes": 6226, "\u0120strict": 6227, "\u0120ruined": 6228, "\u0120sup": 6229, "\u0120desire": 6230, "\u0120relax": 6231, "\u0120bang": 6232, "bble": 6233, "\u0120trained": 6234, "war": 6235, "mar": 6236, "adem": 6237, "\u0120Korea": 6238, "\u0120AB": 6239, "hal": 6240, "\u0120variety": 6241, "irl": 6242, "\u0120champion": 6243, "\u0120fle": 6244, "utor": 6245, "\u0120recognize": 6246, "\u0120Getting": 6247, "acc": 6248, "\u0120interests": 6249, "\u0120spells": 6250, "\u0120boxes": 6251, "\u0120traditional": 6252, "\u0120talks": 6253, "\u0120consequences": 6254, "\u0120global": 6255, "\u0120elim": 6256, "\u0120fees": 6257, "\u0120None": 6258, "\u0120org": 6259, "\u0120:-": 6260, "\u0120builds": 6261, "\u0120connected": 6262, "\u0120flair": 6263, "\u0120medium": 6264, "\u0120era": 6265, "\u0120realistic": 6266, "\u0120impression": 6267, "\u0120rig": 6268, "\u0120distract": 6269, "pool": 6270, "\u0120Democrats": 6271, "\u0120pir": 6272, "\u0120Run": 6273, "\u0120suffer": 6274, "\u0120novel": 6275, "fall": 6276, "ername": 6277, "usive": 6278, "ockey": 6279, "rain": 6280, "\u0120Mil": 6281, "itation": 6282, "acity": 6283, "\u0120ARE": 6284, "\u0120pee": 6285, "\u0120doctors": 6286, "\u0120Netflix": 6287, "\u0120Makes": 6288, "\u0120MY": 6289, "\u0120sight": 6290, "No": 6291, "\u0120unfair": 6292, "\u0120Michael": 6293, "HAHA": 6294, "\u0120recru": 6295, "\u0120phase": 6296, "orida": 6297, "\u0120accidentally": 6298, "icious": 6299, "ji": 6300, "\u0120shiny": 6301, "\u0120valuable": 6302, "gency": 6303, "\u0120slot": 6304, "\u0120buck": 6305, "\u0120Old": 6306, "ancing": 6307, "\u0120tournament": 6308, "born": 6309, "\u0120clos": 6310, "\u0120adults": 6311, "\u0120European": 6312, "\u0120Under": 6313, "\u0120commercial": 6314, "\u0120kiss": 6315, "\u0120Lots": 6316, "\u0120rage": 6317, "\u0120warrant": 6318, "\u0120quarter": 6319, "\u0120BS": 6320, "\u0120Bur": 6321, "\u0120distrib": 6322, "\u0120Yet": 6323, "\u0120Looking": 6324, "\u0120princip": 6325, "\u0120enjoying": 6326, "ache": 6327, "\u0120Coll": 6328, "allow": 6329, "\u0120rewards": 6330, "](/": 6331, "\u0120theme": 6332, "\u0120Fox": 6333, "ushing": 6334, "\u0120difficulty": 6335, "\u0120diagn": 6336, "\u0120Glad": 6337, "\u0120sources": 6338, "\u0120cert": 6339, "\u0120height": 6340, "\u0120devs": 6341, "300": 6342, "\u0120nuclear": 6343, "\u0120wtf": 6344, "\u0120wash": 6345, "\u0120defending": 6346, "retch": 6347, "\u0120150": 6348, "\u0120mile": 6349, "inger": 6350, "\u0120stable": 6351, "\u0120coo": 6352, "\u0120tone": 6353, "\u0120Without": 6354, "\u0120Batman": 6355, "\u0120FOR": 6356, "piracy": 6357, "\u0120coins": 6358, "\u0120pron": 6359, "etic": 6360, "\u0120sla": 6361, "\u0120franchise": 6362, "\u0120organization": 6363, "ura": 6364, "\u0120CH": 6365, "\u0120ghost": 6366, "\u0120cous": 6367, "usted": 6368, "\u0120unnecess": 6369, "\u0120Unt": 6370, "\u0120teachers": 6371, "xy": 6372, "\u0120tests": 6373, "\u0120Whe": 6374, "\u0120frequently": 6375, "\u0120pics": 6376, "orable": 6377, "\u0120trailer": 6378, "\u0120Half": 6379, "\u0120instant": 6380, "\u0120Tech": 6381, "17": 6382, "\u0120agreed": 6383, "\u0120wars": 6384, "\u0120GO": 6385, "\u0120confidence": 6386, "\u0120ads": 6387, "\u0120Alex": 6388, "hile": 6389, "PC": 6390, "\u0120SM": 6391, "\u0120HE": 6392, "\u0120shell": 6393, "\u0120comic": 6394, "\u0120conflict": 6395, "\u0120stayed": 6396, "\u0120Chan": 6397, "\u0120riding": 6398, "\u0120screaming": 6399, "\u0120christ": 6400, "\u0120increasing": 6401, "stream": 6402, "\u0120coin": 6403, "\u0120prepared": 6404, "free": 6405, "istics": 6406, "\u0120BF": 6407, "\u0120belt": 6408, "udd": 6409, "\u0120legally": 6410, "\u0120forg": 6411, "\u0120arguing": 6412, "\u0120trial": 6413, "\u0120menu": 6414, "only": 6415, "\u0120labor": 6416, "\u0120bast": 6417, "\u0120patient": 6418, "\u0120notes": 6419, "19": 6420, "\u0120MC": 6421, "\u0120blank": 6422, "\u0120settle": 6423, "\u0120swing": 6424, "\u0120End": 6425, "\u0120Way": 6426, "\u0120pointless": 6427, "\u0120discount": 6428, "\u0120Sanders": 6429, "\u0120400": 6430, "\u0120supports": 6431, "\u0120existing": 6432, "\u0120devices": 6433, "\u0120Indian": 6434, "\u0120planned": 6435, "\u0120Ever": 6436, "\u0120Tri": 6437, "\u0120Agreed": 6438, "\u0120ups": 6439, "\u0120fundament": 6440, "alax": 6441, "\u0120puss": 6442, "olly": 6443, "\u0120LO": 6444, "\u0120muscle": 6445, "\u0120tear": 6446, "\u0120Guess": 6447, "aling": 6448, "\u0120species": 6449, "\u0120politicians": 6450, "\u0120Miss": 6451, "\u0120insp": 6452, "SS": 6453, "\u0120lies": 6454, "\u0120ate": 6455, "ustain": 6456, "\u0120elsewhere": 6457, "\u0120naturally": 6458, "uous": 6459, "orage": 6460, "\u0120beast": 6461, "\u0120About": 6462, "\u0120retail": 6463, "\u0120pounds": 6464, "\u0120unable": 6465, "RR": 6466, "LD": 6467, "\u0120EVERY": 6468, "\u0120lin": 6469, "\u0120France": 6470, "\u0120Microsoft": 6471, "vy": 6472, "icial": 6473, "\u0120Uni": 6474, "45": 6475, "\u0120compete": 6476, "\u0120Ir": 6477, "\u0120Art": 6478, "\u0120vision": 6479, "\u0120Que": 6480, "ston": 6481, "lines": 6482, "\u0120mast": 6483, "\u0120walls": 6484, "shot": 6485, "\u0120Mine": 6486, "\u0120dust": 6487, "bon": 6488, "\u0120Ball": 6489, "\u0120lawyer": 6490, "\u0120pray": 6491, "ternal": 6492, "\u0120differences": 6493, "\u0120experiment": 6494, "\u0120Long": 6495, "\u0120Sch": 6496, "\u0120rolling": 6497, "\u0120north": 6498, "apped": 6499, "rants": 6500, "\u0120loan": 6501, "\u0120filter": 6502, "\u0120TR": 6503, "\u0120transition": 6504, "olved": 6505, "\u0120placed": 6506, "\u0120policies": 6507, "\u0120freaking": 6508, "\u012028": 6509, "\u0120rise": 6510, "\u0120screwed": 6511, "\u0120doub": 6512, "\u0120portion": 6513, "\u0120whoever": 6514, "\u0120FF": 6515, "\u0120guaranteed": 6516, "\u0120meas": 6517, "hot": 6518, "\u0120brut": 6519, "\u0120unre": 6520, "\u0120coast": 6521, "\u0120sym": 6522, "\u0120CB": 6523, "What": 6524, "nal": 6525, "\u0120missions": 6526, "\u0120voc": 6527, "\u0120Jan": 6528, "istration": 6529, "\u0120dedicated": 6530, "\u0120reported": 6531, "\u0120toilet": 6532, "\u0120scenes": 6533, "rum": 6534, "\u0120bri": 6535, "\u0120toward": 6536, "vable": 6537, "\u0120ca": 6538, "\u0120neighb": 6539, "\u0120symb": 6540, "coming": 6541, "\u0120babies": 6542, "nn": 6543, "\u0120Inf": 6544, "\u0120semi": 6545, "\u0120machines": 6546, "\u0120stereoty": 6547, "\u012032": 6548, "\u0120developers": 6549, "\u0120extent": 6550, "yes": 6551, "...\"": 6552, "there": 6553, "ulations": 6554, "\u0120narrative": 6555, "ashes": 6556, "\u0120myth": 6557, "inating": 6558, "\u0120Mario": 6559, "jo": 6560, "\u0120Da": 6561, "\u0120MA": 6562, "\u0120Top": 6563, "\u0120messages": 6564, "za": 6565, "\u0120bills": 6566, "\u0120Asian": 6567, "\u0120promise": 6568, "ingly": 6569, "\u0120updated": 6570, "\u0120McC": 6571, "\u0120advoc": 6572, "\u0120\u00e2\u0122\u013a": 6573, "\u0120gap": 6574, "inite": 6575, "icago": 6576, "\u0120irrelevant": 6577, "\u0120adm": 6578, "\u0120spots": 6579, "\u0120Den": 6580, "urt": 6581, "\u0120falls": 6582, "UST": 6583, "\u0120Going": 6584, "\u0120stretch": 6585, "\u0120tort": 6586, "bro": 6587, "\u0120loving": 6588, "igan": 6589, "\u0120Watch": 6590, "\u0120gang": 6591, "icy": 6592, "asp": 6593, "\u0120Ze": 6594, "aturday": 6595, "\u0120roster": 6596, "ormal": 6597, "\u0120acts": 6598, "\u0120fashion": 6599, "overy": 6600, "\u0120cod": 6601, "\u0120bullet": 6602, "\u0120skip": 6603, "\u0120stopping": 6604, "\u0120upvote": 6605, "\u0120nonsense": 6606, "PN": 6607, "\u0120Emp": 6608, "\u0120confusing": 6609, "\u0120swim": 6610, "\u0120ammo": 6611, "\u0120FA": 6612, "\u0120hidden": 6613, "\u0120Veg": 6614, "\u0120orders": 6615, "\u0120ourselves": 6616, "\u0120engage": 6617, "\u0120Blood": 6618, "\u0120Sunday": 6619, "ysis": 6620, "rol": 6621, "\u0120repeated": 6622, "\u0120neighborhood": 6623, "TA": 6624, "\u0120routine": 6625, "\u0120activity": 6626, "uto": 6627, "\u0120philosoph": 6628, "\u0120drinks": 6629, "\u0120diam": 6630, "istically": 6631, "ocks": 6632, "\u01202000": 6633, "\u0120reput": 6634, "iat": 6635, "\u0120jealous": 6636, "\u0120described": 6637, "\u0120poison": 6638, "\u0120upper": 6639, "\u0120wallet": 6640, "\u0120titles": 6641, "IA": 6642, "\u0120clock": 6643, "\u0120awhile": 6644, "\u0120Power": 6645, "\u0120san": 6646, "\u0120breath": 6647, "aus": 6648, "\u0120Tod": 6649, "ubs": 6650, "\u0120degrees": 6651, "\u0120delete": 6652, "\u0120freak": 6653, "\u0120asks": 6654, "\u0120blocks": 6655, "\u0120enforce": 6656, "\u0120equally": 6657, "\u0120versions": 6658, "\u0120farming": 6659, "\u0120SA": 6660, "\u0120suffering": 6661, "\u0120sandw": 6662, "22": 6663, "\u0120Cat": 6664, "\u0120Almost": 6665, "uana": 6666, "\u0120whats": 6667, "ondon": 6668, "We": 6669, "pret": 6670, "umer": 6671, "ican": 6672, "\u0120bowl": 6673, "atholic": 6674, "ville": 6675, "\u0120kitchen": 6676, "bet": 6677, "\u0120trees": 6678, "\u0120entitled": 6679, "\u0120burst": 6680, "\u0120Regard": 6681, "ags": 6682, "\u0120films": 6683, "\u0120homeless": 6684, "rency": 6685, "\u0120upload": 6686, "\u0120occasionally": 6687, "\u0120gig": 6688, "GA": 6689, "\u0120James": 6690, "\u0120incent": 6691, "sha": 6692, "\u0120ultimately": 6693, "\u0120VR": 6694, "hib": 6695, "\u0120orange": 6696, "\u0120passion": 6697, "\u0120flex": 6698, "\u0120aband": 6699, "\u0120skins": 6700, "\u0120Ko": 6701, "\u0120EX": 6702, "\u0120transport": 6703, "\u0120applied": 6704, "ader": 6705, "ION": 6706, "rr": 6707, "\u0120neutral": 6708, ".**": 6709, "\u0120replacement": 6710, "\u0120CD": 6711, "\u0120Joe": 6712, "\u0120scam": 6713, "\u0120encourage": 6714, "\u0120Pay": 6715, "\u0120tab": 6716, "\u0120rounds": 6717, "\u0120chair": 6718, "\u0120tested": 6719, "\u0120nightm": 6720, "\u0120bags": 6721, "\u0120Max": 6722, "\u0120famous": 6723, "ava": 6724, "\u0120tied": 6725, "\u0120Night": 6726, "\u0120tape": 6727, "\u0120digital": 6728, "\u0120GPU": 6729, "\u0120laid": 6730, "\u0120thousand": 6731, "\u0120\u00cc": 6732, "\u0120voters": 6733, "\u0120assign": 6734, "\u0120tie": 6735, "\u0120Nor": 6736, "\u0120provided": 6737, "\u0120ANY": 6738, "ownt": 6739, "ye": 6740, "aint": 6741, "\u0120hyper": 6742, "\u0120acqu": 6743, "ko": 6744, "ya": 6745, "\u0120smile": 6746, "\u0120roughly": 6747, "\u0120retire": 6748, "\u0120dur": 6749, "\u0120Hitler": 6750, "onday": 6751, "\u0120western": 6752, "\u0120technical": 6753, "EO": 6754, "\u0120angle": 6755, "onder": 6756, "los": 6757, "\u0120chill": 6758, "\u0120Florida": 6759, "\u0120NBA": 6760, "\u0120announce": 6761, "\u0120Literally": 6762, "\u0120exclusive": 6763, "related": 6764, "\u0120Absolutely": 6765, "\u0120combined": 6766, "\u0120offended": 6767, "ONE": 6768, "\u0120juice": 6769, "\u0120struggling": 6770, "\u0120cloud": 6771, "\u0120Finally": 6772, "\u0120Until": 6773, "\u0120cooking": 6774, "\u0120suggested": 6775, "\u01202015": 6776, "iation": 6777, "rian": 6778, "\u0120flavor": 6779, "\u0120advent": 6780, "\u0120nom": 6781, "because": 6782, "\u0120Lord": 6783, "riors": 6784, "UU": 6785, "\u0120RE": 6786, "\u0120indic": 6787, "\u0120explos": 6788, "\u0120installed": 6789, "\u0120Alright": 6790, "rid": 6791, "\u0120fucks": 6792, "\u0120humor": 6793, "look": 6794, "\u0120houses": 6795, "\u0120UN": 6796, "\u0120theres": 6797, "\u0120syn": 6798, "\u0120username": 6799, "\u0120shared": 6800, "\u0120Lin": 6801, "\u0120bothered": 6802, "GE": 6803, "ini": 6804, "\u0120sect": 6805, "\u0120IM": 6806, "\u01201080": 6807, "\u0120structure": 6808, "lor": 6809, "\u0120exha": 6810, "iqu": 6811, "\u0120suggestion": 6812, "\u0120therapy": 6813, "\u0120exception": 6814, "\u0120scan": 6815, "\u0120Kn": 6816, "life": 6817, "\u0120Cra": 6818, "\u0120worlds": 6819, "\u0120hypocr": 6820, "eration": 6821, "\u0120rifle": 6822, "\u0120clarify": 6823, "\u0120committed": 6824, "\u0120shif": 6825, "\u0120Di": 6826, "pting": 6827, "irts": 6828, "\u0120rational": 6829, "\u0120individuals": 6830, "gins": 6831, "year": 6832, "pa": 6833, "hr": 6834, "ste": 6835, "\u0120mand": 6836, "\u0120funct": 6837, "phones": 6838, "\u0120q": 6839, "\u0120Ive": 6840, "\u0120division": 6841, "HT": 6842, "\u0120bum": 6843, "loc": 6844, "\u0120Jer": 6845, "\u0120vend": 6846, "\u0120multi": 6847, "\u0120sarc": 6848, "apping": 6849, "\u0120tower": 6850, "rats": 6851, "\u0120elite": 6852, "\u0120toss": 6853, "Donald": 6854, "\u0120thumb": 6855, "\u0120reminds": 6856, "\u0120offering": 6857, "\u0120dict": 6858, "PP": 6859, "rets": 6860, "\u0120loses": 6861, "\u0120II": 6862, "\u0120propag": 6863, "\u0120overwhel": 6864, "\u0120Men": 6865, "\u0120coverage": 6866, "\u0120steel": 6867, "apers": 6868, "ERE": 6869, "\u0120NC": 6870, "\u0120Disney": 6871, "\u0120jumping": 6872, "\u0120proceed": 6873, "vity": 6874, "\u0120handed": 6875, "\u0120afterwards": 6876, "\u0120raw": 6877, "\u0120guide": 6878, "\u0120Rel": 6879, "wr": 6880, "\u0120las": 6881, "\u0120sympt": 6882, "leg": 6883, "\u0120dish": 6884, "\u0120bias": 6885, "\u0120hunting": 6886, "\u0120Internet": 6887, "iled": 6888, "SE": 6889, "\u0120visual": 6890, "\u0120bodies": 6891, "every": 6892, "\u0120killer": 6893, "\u0120symp": 6894, "\u0120Sen": 6895, "\u0120legendary": 6896, "\u0120latest": 6897, "\u0120combination": 6898, "\u0120cuts": 6899, "\u0120projects": 6900, "\u0120ax": 6901, "\u0120MM": 6902, "\u0120\u00c3": 6903, "afe": 6904, "\u0120reliable": 6905, "\u0120improved": 6906, "\u0120Post": 6907, "\u0120backwards": 6908, "equ": 6909, "\u0120joking": 6910, "\u0120utter": 6911, "adays": 6912, "\u0120corporate": 6913, "\u0120Bell": 6914, "\u0120description": 6915, "ctor": 6916, "\u0120housing": 6917, "\u0120doors": 6918, "licit": 6919, "\u0120Mel": 6920, "inds": 6921, "\u0120PvP": 6922, "itt": 6923, "\u0120HR": 6924, "\u0120swap": 6925, "\u0120RB": 6926, "\u0120spray": 6927, "reme": 6928, "\u012027": 6929, "imm": 6930, "\u0120Jones": 6931, "maybe": 6932, "\u01202014": 6933, "\u0120Free": 6934, "\u0120abortion": 6935, "\u0120native": 6936, "\u0120pays": 6937, "\u0120express": 6938, "\u0120BL": 6939, "attle": 6940, "\u0120comprom": 6941, "cs": 6942, "\u0120rely": 6943, "\u0120disease": 6944, "\u01202017": 6945, "\u0120attend": 6946, "\u0120stomach": 6947, "\u0120logical": 6948, "\u0120guild": 6949, "\u0120Hello": 6950, "\u0120payment": 6951, "hab": 6952, "alaxy": 6953, "\u0120loop": 6954, "\u0120painful": 6955, "\u0120incorrect": 6956, "\u0120shadow": 6957, "\u0120breast": 6958, "\u0120intelligent": 6959, "\u0120jungle": 6960, "\u0120Chicago": 6961, "known": 6962, "\u0120forth": 6963, "This": 6964, "omed": 6965, "\u0120Things": 6966, "season": 6967, "\u0120vehicles": 6968, "\u0120randomly": 6969, "osis": 6970, "\u0120insan": 6971, "ett": 6972, "uting": 6973, "\u0120sexy": 6974, "\u0120Rom": 6975, "ku": 6976, "\u0120delicious": 6977, "erve": 6978, "\u0120IG": 6979, "\u0120cleaning": 6980, "\u0120entry": 6981, "arden": 6982, "\u0120rip": 6983, "\u0120CAN": 6984, "\u0120storage": 6985, "\u0120DPS": 6986, "\u0120surely": 6987, "\u0120deliver": 6988, "sm": 6989, "\u0120shocked": 6990, "\u0120WE": 6991, "\u0120switched": 6992, "\u0120controvers": 6993, "\u0120monsters": 6994, "\u0120DE": 6995, "\u0120believed": 6996, "\u0120witness": 6997, "\u0120roomm": 6998, "\u0120Del": 6999, "\u0120alien": 7000, "\u0120liquid": 7001, "ano": 7002, "\u0120FC": 7003, "\u0120basketball": 7004, "\u0120Sony": 7005, "\u0120jerk": 7006, "\u0120youre": 7007, "\u0120includes": 7008, "power": 7009, "\u0120Mike": 7010, "\u0120exciting": 7011, "\u0120fought": 7012, "\u0120nerv": 7013, "\u0120mentally": 7014, "\u0120sorts": 7015, "\u0120articles": 7016, "\u0120Eh": 7017, "\u0120wre": 7018, "\u0120Hel": 7019, "\u0120habit": 7020, "\u0120library": 7021, "adium": 7022, "\u0120Tre": 7023, "ighters": 7024, "\u0120deny": 7025, "iller": 7026, "UR": 7027, "ether": 7028, "\u0120checks": 7029, "\u0120multiplayer": 7030, "\u0120Depends": 7031, "\u0120punishment": 7032, "\u0120Far": 7033, "\u0120Been": 7034, "\u0120selfish": 7035, "really": 7036, "sl": 7037, "bell": 7038, "ocolate": 7039, "\u0120communication": 7040, "\u0120deleted": 7041, "\u0120circumstances": 7042, "\u0120LOT": 7043, "pan": 7044, "\u0120realise": 7045, "\u0120mechanic": 7046, "\u0120fighter": 7047, "\u0120submit": 7048, "ipes": 7049, "\u0120ultimate": 7050, "\u0120India": 7051, "**.": 7052, "\u0120fart": 7053, "\u0120odds": 7054, "\u0120sucked": 7055, "\u0120Bow": 7056, "sk": 7057, "fting": 7058, "\u0120repair": 7059, "\u0120attached": 7060, "\u0120fruit": 7061, "\u0120tail": 7062, "pol": 7063, "itz": 7064, "respect": 7065, "\u0120wasted": 7066, "\u0120attacked": 7067, "\u0120medi": 7068, "\u0120expectations": 7069, "\u0120guitar": 7070, "\u0120gods": 7071, "\u0120EA": 7072, "istol": 7073, "\u0120Att": 7074, "\u0120refused": 7075, "outhern": 7076, "\u0120Ver": 7077, "istent": 7078, "\u0120arrested": 7079, "org": 7080, "inals": 7081, "\u0120pros": 7082, "\u0120`": 7083, "\u0120facebook": 7084, "ford": 7085, "aby": 7086, "name": 7087, "iser": 7088, "mind": 7089, "\u0120explaining": 7090, "\u0120holds": 7091, "\u0120Halo": 7092, "\u0120cred": 7093, "24": 7094, "\u0120contest": 7095, "\u0120reasoning": 7096, "osexual": 7097, "\u0120yea": 7098, "istry": 7099, "\u0120annoyed": 7100, "\u0120existed": 7101, "\u0120BUT": 7102, "\u0120Season": 7103, "\u0120tack": 7104, "inn": 7105, "\u0120carrying": 7106, "\u0120creative": 7107, "\u0120highlight": 7108, "\u0120cris": 7109, "\u0120ive": 7110, "\u0120vegan": 7111, ".,": 7112, "\u0120sweat": 7113, "\u0120quot": 7114, "\u0120Current": 7115, "\u0120independent": 7116, "\u0120Besides": 7117, "\u0120prote": 7118, "\u0120intelligence": 7119, "\u0120sauce": 7120, "fect": 7121, "gic": 7122, "lord": 7123, "\u0120burning": 7124, "\u0120ven": 7125, "\u0120addict": 7126, "\u0120claiming": 7127, "\u0120MP": 7128, "nic": 7129, "\u0120depressed": 7130, "\u0120vacc": 7131, "\u0120CA": 7132, "\u0120Mur": 7133, "\u0120Squ": 7134, "place": 7135, "\u0120rang": 7136, "\u0120dirt": 7137, "\u0120London": 7138, "\u0120priority": 7139, "\u0120Bob": 7140, "\u0120pathetic": 7141, "oken": 7142, "\u0120marry": 7143, "\u0120podcast": 7144, "\u0120whereas": 7145, "\u0120instruct": 7146, "eem": 7147, "\u0120hotel": 7148, "\u0120hockey": 7149, "cont": 7150, "\u0120Smith": 7151, "\u0120Buy": 7152, "\u0120nail": 7153, "\u0120sustain": 7154, "\u0120holes": 7155, "\u0120affected": 7156, "ships": 7157, "\u0120Dun": 7158, "\u0120bump": 7159, "\u0120lore": 7160, "\u0120cultural": 7161, "PA": 7162, "\u0120unw": 7163, "\u0120ignoring": 7164, "\u0120manner": 7165, "\u0120trap": 7166, "wl": 7167, "\u0120intense": 7168, "isl": 7169, "evit": 7170, "\u0120vent": 7171, "reement": 7172, "\u0120began": 7173, "\u0120OR": 7174, "\u0120backup": 7175, "enders": 7176, "\u0120engineering": 7177, "!?": 7178, "gl": 7179, "\u0120Team": 7180, "\u0120snap": 7181, "\u0120simpl": 7182, "\u0120remem": 7183, "\u0120downt": 7184, "away": 7185, "een": 7186, "\u0120FUCKING": 7187, "zil": 7188, "):": 7189, "\u0120advanced": 7190, "\u0120pink": 7191, "\u0120unnecessary": 7192, "oub": 7193, "\u0120nervous": 7194, "\u0120emergency": 7195, "\u0120TIL": 7196, "\u0120Dev": 7197, "\u0120analog": 7198, "\u0120shout": 7199, "amsung": 7200, "\u0120goddamn": 7201, "\u0120SK": 7202, "\u0120vag": 7203, "\u0120privile": 7204, "why": 7205, "\u0120NS": 7206, "\u0120exam": 7207, "\u0120Haw": 7208, "\u0120Bull": 7209, "especially": 7210, "ulf": 7211, "\u0120GOP": 7212, "\u0120spring": 7213, "\u0120scar": 7214, "\u0120shopping": 7215, "\u0120bite": 7216, "\u0120links": 7217, "\u0120lifest": 7218, "\u0120injured": 7219, "\u0120conspiracy": 7220, "And": 7221, "eter": 7222, "osen": 7223, "\u0120kidding": 7224, "ouch": 7225, "\u0120Av": 7226, "\u0120soldiers": 7227, "\u0120blown": 7228, "CE": 7229, "olves": 7230, "ena": 7231, "\u0120memes": 7232, "\u0120sadly": 7233, "\u0120ages": 7234, "\u0120pu": 7235, "GO": 7236, "\u0120makeup": 7237, "\u0120wra": 7238, "iel": 7239, "\u0120wouldnt": 7240, "\u0120accomplish": 7241, "ucky": 7242, "\u0120LS": 7243, "class": 7244, "\u0120races": 7245, "\u0120coup": 7246, "\u0120businesses": 7247, "\u0120lift": 7248, "aco": 7249, "\u0120Ron": 7250, "\u0120Destiny": 7251, "\u0120Congrats": 7252, "\u0120Ice": 7253, "\u0120Wat": 7254, "\u0120behavi": 7255, "\u0120plants": 7256, "\u0120spl": 7257, "\u0120seed": 7258, "\u0120crimes": 7259, "\u0120atheist": 7260, "\u0120elected": 7261, "\u0120impressed": 7262, "\u0120objective": 7263, "\u0120pace": 7264, "umble": 7265, "\u0120slower": 7266, "\u01202018": 7267, "\u0120central": 7268, "\u0120Trans": 7269, "\u0120permanent": 7270, "\u0120Gra": 7271, "\u0120chemical": 7272, "\u0120Sal": 7273, "\u0120***": 7274, "\u0120reached": 7275, "\u0120TD": 7276, "\u0120oblig": 7277, "\u0120arch": 7278, "cho": 7279, "\u0120du": 7280, "\u0120pitch": 7281, "\u0120Twitter": 7282, "cean": 7283, "\u0120emotions": 7284, "onym": 7285, "illion": 7286, "\u0120Inc": 7287, "\u0120epic": 7288, "\u0120purs": 7289, "\u0120gather": 7290, "\u0120rul": 7291, "\u0120yard": 7292, "\u0120Ep": 7293, "\u0120interpret": 7294, "\u0120twitter": 7295, "\u0120compens": 7296, "\u0120discovered": 7297, "\u0120Ham": 7298, "\u0120shel": 7299, "\u0120reports": 7300, "rick": 7301, "\u0120sna": 7302, "\u0120inevit": 7303, "\u0120quests": 7304, "ography": 7305, "\u0120pad": 7306, "\u0120Find": 7307, "\u0120comparing": 7308, "\u0120cigare": 7309, "\u0120BC": 7310, "chers": 7311, "\u0120AF": 7312, "\u0120revenue": 7313, "\u0120illness": 7314, "\u0120inherent": 7315, "\u0120Spec": 7316, "\u0120adapt": 7317, "\u0120Saturday": 7318, "\u0120TB": 7319, "\u0120consent": 7320, "\u0120summon": 7321, "\u0120cuz": 7322, "imp": 7323, "lessly": 7324, "\u0120stays": 7325, "\u0120removing": 7326, "parent": 7327, "\u0120usage": 7328, "\u0120vacation": 7329, "\u0120newer": 7330, "\u0120languages": 7331, "\u0120closest": 7332, "\u0120Note": 7333, "\u0120laughed": 7334, "\u0120Grand": 7335, "\u0120hi": 7336, "\u0120streaming": 7337, "\u0120agent": 7338, "\u0120accent": 7339, "\u0120applies": 7340, "\u0120WTF": 7341, "\u0120NH": 7342, "\u0120fancy": 7343, "itors": 7344, "iki": 7345, "\u0120capacity": 7346, "\u0120Knight": 7347, "\u0120naked": 7348, "\u0120fuckin": 7349, "standing": 7350, "\u0120assass": 7351, "\u0120announced": 7352, "\u0120gall": 7353, "\u0120apple": 7354, "ffect": 7355, "\u0120junk": 7356, "\u0120boots": 7357, "\u0120Fair": 7358, "\u0120Tal": 7359, "\u0120Imp": 7360, "install": 7361, "\u0120Harry": 7362, "\u0120forcing": 7363, "\u0120anger": 7364, "\u0120delivery": 7365, "\u0120symbol": 7366, "\u0120La": 7367, "\u0120premium": 7368, "\u0120sensitive": 7369, "\u0120messed": 7370, "haw": 7371, "\u0120succeed": 7372, "duct": 7373, "fun": 7374, "\u0120Hor": 7375, "\u0120David": 7376, "\u0120FPS": 7377, "bad": 7378, "ores": 7379, "\u0120Supp": 7380, "\u0120REALLY": 7381, "\u0120buildings": 7382, "\u00ef\u00b8": 7383, "\u0120diamond": 7384, "oul": 7385, "\u0120Chris": 7386, "\u0120drawing": 7387, "\u0120application": 7388, "\u0120conscious": 7389, "\u00ef\u00b8\u0131": 7390, "\u0120Boy": 7391, "\u0120continues": 7392, "\u0120lesson": 7393, "mat": 7394, "lder": 7395, "utions": 7396, "\u0120cens": 7397, "\u0120shoulder": 7398, "\u0120frank": 7399, "\u0120til": 7400, "\u0120Christians": 7401, "\u0120sooner": 7402, "\u0120appoint": 7403, "roat": 7404, "\u0120sche": 7405, "oston": 7406, "weet": 7407, "\u0120decre": 7408, "enance": 7409, "ccer": 7410, "\u0120Mass": 7411, "\u0120attracted": 7412, "ras": 7413, "\u0120Quest": 7414, "\u0120supported": 7415, "check": 7416, "hi": 7417, "\u0120tweet": 7418, "olen": 7419, "\u0120bosses": 7420, "\u0120sir": 7421, "\u0120ket": 7422, "illiant": 7423, "\u0120Ken": 7424, "\u0120asleep": 7425, "erent": 7426, "\u0120believes": 7427, "\u0120horror": 7428, "\u0120vap": 7429, "oor": 7430, "\u0120hunt": 7431, "bits": 7432, "\u0120Such": 7433, "\u0120charging": 7434, "\u0120IF": 7435, "\u0120caps": 7436, "\u0120developer": 7437, "employ": 7438, "\u0120conclusion": 7439, "\u0120teammates": 7440, "osition": 7441, "\u0120compon": 7442, "\u0120..": 7443, "\u0120USB": 7444, "\u0120Welcome": 7445, "\u0120Spanish": 7446, "\u0120computers": 7447, "\u0120Ugh": 7448, "hhhh": 7449, "actions": 7450, "\u0120harsh": 7451, "\u0120presence": 7452, "\u0120si": 7453, "lings": 7454, "400": 7455, "ijuana": 7456, "\u0120pussy": 7457, "\u0120internal": 7458, "\u0120ignored": 7459, "\u0120mentality": 7460, "edi": 7461, "\u0120OC": 7462, "\u0120sharp": 7463, "\u0120humanity": 7464, "\u0120ensure": 7465, "istan": 7466, "law": 7467, "\u0120elements": 7468, "\u0120identify": 7469, "\u0120penalty": 7470, "\u0120^^^": 7471, "\u0120Ask": 7472, "\u0120materials": 7473, "\u0120presc": 7474, "\u0120Mean": 7475, "ials": 7476, "\u0120limits": 7477, "ooo": 7478, "\u0120Blizzard": 7479, "\u0120Space": 7480, "\u0120lowest": 7481, "\u0120dreams": 7482, "\u0120incident": 7483, "\u0120clothing": 7484, "aled": 7485, "\u0120homes": 7486, "\u0120dual": 7487, "\u0120previously": 7488, "ifice": 7489, "\u0120Gun": 7490, "\u0120Law": 7491, "\u0120wine": 7492, "\u0120BR": 7493, "\u0120Atl": 7494, "TER": 7495, "osing": 7496, "\u0120120": 7497, "\u0120island": 7498, "\u0120Monday": 7499, "\u0120negot": 7500, "\u0120candy": 7501, "chan": 7502, "\u0120physics": 7503, "\u0120NYC": 7504, "\u0120Oct": 7505, "\u0120bond": 7506, "\u0120excess": 7507, "\u0120passes": 7508, "erable": 7509, "\u0120clip": 7510, "\u0120EV": 7511, "\u0120Muslims": 7512, "\u0120sty": 7513, "\u00e3\u0123": 7514, "\u0120Wall": 7515, "\u0120strongly": 7516, "keep": 7517, "NN": 7518, "gment": 7519, "\u0120lob": 7520, "ola": 7521, "\u0120AMA": 7522, "\u0120switching": 7523, "\u0120marijuana": 7524, "ront": 7525, "\u0120crypt": 7526, "\u0120stealing": 7527, "\u0120Fed": 7528, "\u0120pages": 7529, "\u0120golden": 7530, "\u0120quant": 7531, "\u0120hardest": 7532, "\u0120hobby": 7533, "omy": 7534, "\u0120dynam": 7535, "\u0120outcome": 7536, "eez": 7537, "unte": 7538, "\u0120dps": 7539, "\u0120Event": 7540, "ointing": 7541, "oral": 7542, "\u0120bell": 7543, "essions": 7544, "ige": 7545, "\u0120bom": 7546, "\u0120Wii": 7547, "\u0120responses": 7548, "\u0120Need": 7549, "iveness": 7550, "\u0120sea": 7551, "\u00e2\u0122\u0136": 7552, "\u0120Funny": 7553, "etime": 7554, "aine": 7555, "\u0120determine": 7556, "rive": 7557, "\u0120Donald": 7558, "encies": 7559, "\u0120concent": 7560, "van": 7561, "\u0120clubs": 7562, "\u0120seats": 7563, "eared": 7564, "\u0120bridge": 7565, "\u0120roles": 7566, "\u0120Were": 7567, "\u0120Legend": 7568, "\u0120Roman": 7569, "\u0120insist": 7570, "\u0120climate": 7571, "\u0120involve": 7572, "\u0120Say": 7573, "mate": 7574, "\u0120Force": 7575, "\u0120Champ": 7576, "liv": 7577, "\u0120minds": 7578, "\u0120alleg": 7579, "\u0120Considering": 7580, "\u0120ISIS": 7581, "\u0120purely": 7582, "\u0120funds": 7583, "car": 7584, "\u0120liking": 7585, "\u0120bleed": 7586, "\u0120vul": 7587, "\u0120maintenance": 7588, "\u0120traded": 7589, "\u0120category": 7590, "nda": 7591, "\u0120SF": 7592, "\u0120finds": 7593, "\u0120memories": 7594, "\u0120linked": 7595, "\u0120tastes": 7596, "ami": 7597, "aborate": 7598, "\u0120propaganda": 7599, "\u0120recover": 7600, "\u0120Master": 7601, "\u0120tracks": 7602, "\u0120Bal": 7603, "world": 7604, "\u0120dance": 7605, "\u0120WoW": 7606, "\u0120investigation": 7607, "\u0120practically": 7608, "\u0120gate": 7609, "\u0120associated": 7610, "\u0120mood": 7611, "aka": 7612, "\u0120^^^^": 7613, "asks": 7614, "wal": 7615, "\u0120Mich": 7616, "\u0120Boston": 7617, "\u0120factory": 7618, "\u0120electron": 7619, "pay": 7620, "cluding": 7621, "\u0120mins": 7622, "\u0120currency": 7623, "\u0120arena": 7624, "ifies": 7625, "\u0120drove": 7626, "\u0120Haven": 7627, "\u0120delus": 7628, "\u0120Ryan": 7629, "ogs": 7630, "\u0120199": 7631, "\u0120Fallout": 7632, "\u0120concerns": 7633, "\u0120straw": 7634, "\u0120increases": 7635, "\u0120Whatever": 7636, "\u0120hired": 7637, "\u0120suggesting": 7638, "\u0120controls": 7639, "\u0120apologize": 7640, "\u0120breakfast": 7641, "\u0120funding": 7642, "\u0120duty": 7643, "\u0120artists": 7644, "\u0120vague": 7645, "\u0120Sum": 7646, "\u0120Class": 7647, "\u0120faces": 7648, "\u0120uncle": 7649, "\u0120opponents": 7650, "\u0120establish": 7651, "lling": 7652, "\u0120refund": 7653, "\u0120cunt": 7654, "ega": 7655, "\u0120rant": 7656, "\u0120chip": 7657, "\u0120relative": 7658, "ette": 7659, "\u0120blew": 7660, "\u0120beef": 7661, "\u0120forms": 7662, "***": 7663, "ias": 7664, "\u0120Wr": 7665, "onto": 7666, "\u0120joy": 7667, "\u0120acid": 7668, "\u0120myster": 7669, "\u0120welf": 7670, "\u0120driven": 7671, "mod": 7672, "\u0120baseball": 7673, "\u0120wha": 7674, "agues": 7675, "\u0120mirror": 7676, "\u0120nasty": 7677, "\u0120proced": 7678, "vi": 7679, "\u0120insight": 7680, "\u0120welfare": 7681, "\u0120pilot": 7682, "isters": 7683, "\u0120latter": 7684, "iency": 7685, "\u0120shotgun": 7686, "ammar": 7687, "\u0120dozen": 7688, "\u0120union": 7689, "\u0120collap": 7690, "pu": 7691, "He": 7692, "\u0120capitalism": 7693, "\u0120Prot": 7694, "vp": 7695, "\u0120ho": 7696, "\u0120motion": 7697, "edit": 7698, "irc": 7699, "\u0120compat": 7700, "\u0120facing": 7701, "\u0120forum": 7702, "\u0120admitted": 7703, "\u0120Ange": 7704, "\u0120poster": 7705, "ifications": 7706, "\u0120journal": 7707, "......": 7708, "\u0120password": 7709, "\u0120replies": 7710, "\u0120wipe": 7711, "hington": 7712, "\u0120discrim": 7713, "\u0120explore": 7714, "omin": 7715, "works": 7716, "\u0120Kinda": 7717, "\u0120Hot": 7718, "\u0120aspects": 7719, "\u0120McDonald": 7720, "\u0120Jud": 7721, "iform": 7722, "\u0120brief": 7723, "\u0120records": 7724, "\u0120neat": 7725, "\u0120beaten": 7726, "\u0120Show": 7727, "\u0120remaining": 7728, "asant": 7729, "\u0120hungry": 7730, "\u0120hill": 7731, "\u0120Cry": 7732, "\u0120knee": 7733, "\u0120George": 7734, "\u0120bubble": 7735, "\u0120output": 7736, "\u0120Dad": 7737, "\u0120democracy": 7738, "nb": 7739, "itute": 7740, "pack": 7741, "ructure": 7742, "\u0120actor": 7743, "was": 7744, "\u0120shr": 7745, "char": 7746, "\u0120Each": 7747, "kings": 7748, "rors": 7749, "\u0120Magic": 7750, "\u0120ramp": 7751, "\u0120wasnt": 7752, "\u0120legisl": 7753, "\u00e2\u0122\u013f.": 7754, "level": 7755, "\u0120obtain": 7756, "\u0120peop": 7757, "\u0120generic": 7758, "\u0120animation": 7759, "\u0120pregnancy": 7760, "\u0120om": 7761, "\u0120recommended": 7762, "\u0120AA": 7763, "\u0120chocolate": 7764, "iosity": 7765, "\u0120ol": 7766, "inks": 7767, "\u0120Regardless": 7768, "\u0120yards": 7769, "\u0120blade": 7770, "\u0120Mexico": 7771, "\u0120weigh": 7772, "\u0120Pot": 7773, "\u0120Matt": 7774, "\u0120minimal": 7775, "\u0120handled": 7776, "oma": 7777, "\u0120anytime": 7778, "\u012095": 7779, "orders": 7780, "\u0120Cru": 7781, "\u0120dismiss": 7782, "\u0120nowadays": 7783, "\u0120Bush": 7784, "\u0120Spr": 7785, "\u012036": 7786, "oster": 7787, "\u0120partners": 7788, "\u0120LI": 7789, "ifi": 7790, "\u0120ears": 7791, "\u0120HU": 7792, "\u0120engineer": 7793, "\u0120academ": 7794, "yal": 7795, "\u0120colour": 7796, "\u0120requirements": 7797, "\u0120Uh": 7798, "\u0120largely": 7799, "\u0120prospect": 7800, "\u0120blah": 7801, "\u0120deserved": 7802, "\u0120hating": 7803, "\u0120Titan": 7804, "cil": 7805, "\u0120TSM": 7806, "\u0120timing": 7807, "\u0120whom": 7808, "\u0120biased": 7809, "\u0120cowork": 7810, "iating": 7811, "\u0120tempor": 7812, "pow": 7813, "\u0120gro": 7814, "\u0120Dam": 7815, "\u0120task": 7816, "\u0120dram": 7817, "\u0120joined": 7818, "\u0120Tar": 7819, "eeee": 7820, "somet": 7821, "\u0120PO": 7822, "\u0120protein": 7823, "popular": 7824, "when": 7825, "\u0120answered": 7826, "\u0120jung": 7827, "\u0120queue": 7828, "based": 7829, "\u0120salty": 7830, "\u0120programming": 7831, "\u0120Meanwhile": 7832, "\u0120starter": 7833, "\u0120introduced": 7834, "\u0120practical": 7835, "\u01202012": 7836, "\u0120appearance": 7837, "\u0120Scott": 7838, "\u0120stadium": 7839, "cut": 7840, "\u0120lanes": 7841, "\u0120lean": 7842, "\u0120Happy": 7843, "belie": 7844, "\u0120stolen": 7845, "\u0120Lou": 7846, "\u0120nar": 7847, "\u0120Hero": 7848, "\u0120Sadly": 7849, "\u0120alpha": 7850, "\u0120mild": 7851, "\u0120manufacture": 7852, "\u0120disrespect": 7853, "\u0120250": 7854, "\u0120secure": 7855, "nels": 7856, "\u0120chips": 7857, "vision": 7858, "bron": 7859, "33": 7860, "\u0120ratio": 7861, "\u0120stranger": 7862, "\u0120Mars": 7863, "agram": 7864, "\u0120preference": 7865, "\u0120fps": 7866, "\u0120Catholic": 7867, "\u0120PA": 7868, "\u0120Rod": 7869, "]]": 7870, "\u0120Whether": 7871, "\u0120counts": 7872, "\u0120misunder": 7873, "\u0120spare": 7874, "\u0120reputation": 7875, "\u0120weakness": 7876, "\u0120campus": 7877, "\u0120bitter": 7878, "\u0120Ya": 7879, "raq": 7880, "\u0120Today": 7881, "soever": 7882, "\u0120tends": 7883, "\u0120string": 7884, "\u0120\u00f0\u0141\u013a\u0124": 7885, "\u0120poo": 7886, "\u0120tracking": 7887, "unity": 7888, "\u0120instr": 7889, "\u0120Pri": 7890, "\u0120analysis": 7891, "ecraft": 7892, "\u0120DA": 7893, "\u00c3\u00a4": 7894, "\u0120badass": 7895, "\u0120panic": 7896, "\u0120AMD": 7897, "\u0120Souls": 7898, "\u0120Korean": 7899, "inem": 7900, "DD": 7901, "atural": 7902, "icked": 7903, "osphere": 7904, "\u0120hiding": 7905, "\u0120improvement": 7906, "\u0120Mont": 7907, "\u0120Adam": 7908, "\u0120evolution": 7909, "\u0120conce": 7910, "\u0120established": 7911, "\u0120signal": 7912, "\u0120largest": 7913, "\u0120automatic": 7914, "\u0120battles": 7915, "senal": 7916, "\u0120seek": 7917, "\u0120wasting": 7918, "uls": 7919, "\u0120bc": 7920, "\u0120savings": 7921, "\u0120souls": 7922, "\u0120scheme": 7923, "\u0120Guys": 7924, "\u0120thor": 7925, "\u0120tires": 7926, "\u0120Samsung": 7927, "izon": 7928, "\u0120nights": 7929, "bies": 7930, "\u0120whatsoever": 7931, "\u0120authority": 7932, "itate": 7933, "\u0120factors": 7934, "\u0120decides": 7935, "\u0120Bitcoin": 7936, "\u0120purple": 7937, "\u0120foods": 7938, "\u0120FO": 7939, "\u0120citizen": 7940, "\u0120lone": 7941, "\u0120beats": 7942, "quest": 7943, "\u0120aid": 7944, "\u0120bits": 7945, "berg": 7946, "\u0120blat": 7947, "ghter": 7948, "\u0120Cy": 7949, "\u0120upvotes": 7950, "\u0120%": 7951, "\u01202013": 7952, "nov": 7953, "\u0120earned": 7954, "\u0120claimed": 7955, "rocery": 7956, "making": 7957, "\u0120mountain": 7958, "olar": 7959, "ollow": 7960, "\u0120comics": 7961, "ENT": 7962, "\u0120masturb": 7963, "\u0120hopes": 7964, "estic": 7965, "through": 7966, "\u0120symptoms": 7967, "orrow": 7968, "\u0120vib": 7969, "ilst": 7970, "\u0120dates": 7971, "\u0120Feel": 7972, "\u0120Ire": 7973, "\u0120encounter": 7974, "\u0120choosing": 7975, "\u0120Rick": 7976, "xx": 7977, "style": 7978, "\u0120nightmare": 7979, "\u0120phrase": 7980, "\u0120century": 7981, "\u0120melt": 7982, "\u0120rocket": 7983, "\u0120Mess": 7984, "\u0120greatly": 7985, "\u0120crappy": 7986, "\u0120Sing": 7987, "sea": 7988, "\u0120consoles": 7989, "\u0120raped": 7990, "\u0120Congress": 7991, "school": 7992, "\u0120bitcoin": 7993, "\u0120regards": 7994, "agers": 7995, "\u0120depos": 7996, "\u0120Washington": 7997, "\u0120nations": 7998, "\u0120lip": 7999, "ocre": 8000, "\u0120cousin": 8001, "\u0120TW": 8002, "\u0120worker": 8003, "__FP16_PAD_0__": 8004, "__FP16_PAD_1__": 8005, "__FP16_PAD_2__": 8006, "__FP16_PAD_3__": 8007}
